#version: 0.2
Ġ Ġ
ĠĠ ĠĠ
ĠĠ Ġ
ĠĠĠĠ ĠĠĠĠ
s e
i n
ĠĠĠĠ ĠĠĠ
r e
o n
t e
Ċ ĠĠĠĠĠĠĠ
Ċ ĠĠĠĠĠĠĠĠ
o r
s t
d e
Ċ ĠĠĠ
t h
l e
Ġ =
l f
se lf
m e
a l
t i
e r
Ġ a
Ġ '
Ġ i
a r
Ġ c
e n
ĊĠĠĠĠĠĠĠĠ ĠĠĠ
Ġ f
a n
Ġ self
a t
r o
Ġ th
Ġ re
ti on
' ,
Ġ "
Ġ p
u r
c e
Ġ n
g e
) :
a s
- -
Ġ t
Ġ s
# #
u e
m p
Ġ o
a me
Ġth e
Ġ in
in g
l i
de f
c t
l o
p e
r i
a te
u n
Ġ e
ĊĠĠĠĠĠĠĠĠ ĠĠĠĠĠĠĠĠ
Ġ #
d i
f i
Ġ b
c o
se r
Ġ m
Ġ (
c h
Ġ w
u t
s i
Ċ ĊĠĠĠ
Ġi f
" "
( )
n t
i d
r a
c k
Ġ def
u l
ur n
a d
te r
e l
t urn
n ame
ĊĠĠĠĠĠĠĠĠ ĠĠĠĠĠĠĠ
' :
o t
' )
Ġ [
( '
or t
ge t
_ _
o d
Ġi s
Ġ d
Ġf or
on e
t y
Ġt o
a b
Ġre turn
Ġ v
i s
-- --
Ġa n
Ġ T
Ġ 0
e d
o de
## ##
i l
0 0
u p
s s
e t
p a
c on
= =
i t
m a
q u
o l
Ġ h
) ,
te st
e s
Ċ ĊĠĠĠĠĠĠĠ
Ġ u
x t
" ,
Ġo f
N one
al ue
as s
Ġc on
ser t
Ġ" ""
se t
Ġ st
o p
mp ort
Ġ 1
c tion
k e
l a
ro m
' ]
at a
ĠĠĠĠ Ġ
Ċ Ċ
v er
. _
de r
a tion
h e
ul t
Ġ S
c l
) )
r ue
v e
v i
me nt
Ġ +
Ġan d
Ġ A
si on
a p
Ġn ot
i le
in t
u le
Ġe x
Ġ C
Ġ -
: :
i th
e ct
Ġ %
r or
al l
u m
t r
a m
u b
el d
g s
[ '
an d
ab le
p ar
ĠĠĠĠĠĠĠĠ ĠĠĠĠĠĠĠĠ
b u
Ġa s
ty pe
] ,
b j
Ġ {
re s
te d
l in
Ġ I
a ge
t o
e x
Ġ de
l s
as sert
( "
Ġ F
a se
od ule
en t
Ġ _
Ġ g
Ġ di
Ġ None
Ċ ĠĠĠĠĠ
ĊĠĠĠĠĠĠĠĠĠĠĠĠĠĠĠĠ ĠĠĠ
Ġ L
Ġi mport
fi le
p tion
st r
p ro
R e
ke y
Ġ 2
en d
/ /
t a
Ġ or
f rom
te xt
Ġb e
Ċ ĉ
Ġ= =
f or
Ġ P
Ġ test
Ġc o
li st
y pe
pa th
#### ####
h t
---- ----
Ġ r
Ġ :
ti me
Ġre s
Ċ Ġ
p ut
ad d
h o
u s
i g
p er
i c
" )
== ==
cl ass
= '
al se
Ġn ame
qu al
* *
E r
E R
p t
Ġ se
Ġw ith
q ue
f o
e w
Er ror
o ut
T rue
bj ect
s c
le n
i eld
an ce
p o
f f
Ġp ro
a ult
c i
Ġ lo
n s
Ġ me
te m
a ck
i z
] )
o ur
I N
m at
Ġf ile
ap p
i se
m o
Ġv alue
mp le
d ata
Ġ D
m odule
Ġe l
ar t
re d
" :
o w
w or
v alue
ĊĠĠĠĠĠĠĠĠĠĠĠĠĠĠĠĠ ĠĠĠĠĠĠĠĠ
Ġel se
y s
ar gs
l y
E qual
fi g
Ġ O
th od
ch e
m m
e st
Ġ G
t ri
co de
Ġa r
d ate
Ġ M
lin e
b er
li c
I n
u re
s h
Ġm a
st ance
Ġ y
que st
0 1
O N
our ce
d d
an ge
A T
Ġst r
an g
re ate
Ġp ar
"" "
Ġ un
Ġth at
Ġ *
= "
assert Equal
ct or
i st
m ode
ur l
Ġ l
par am
Ġ __
v al
un t
ĊĠĠĠĠĠĠĠĠĠĠĠĠĠĠĠĠ ĠĠĠĠĠĠĠĠĠĠĠĠĠĠĠĠ
re nt
Ġ on
Ġth is
a g
Ġ W
a c
i mport
p y
un ction
I T
Ġ 3
r y
Ġi t
Ġ N
E S
Ġ en
b o
p re
Ġ `
') ,
Ġ ra
Ġ( '
Ġ E
Ġ set
Ġ get
Ġ <
Ġd ata
f a
il d
a der
ce ss
Ġ x
r int
ĊĠĠĠĠĠĠĠĠĠĠĠĠĠĠĠĠ ĠĠ
lo w
Ġu se
o m
en se
p on
o c
) .
s p
Ġc h
t p
ro up
n e
Ċĉ ĉ
Ġf rom
in d
A R
Ġ >
Ġp a
i f
at ch
di r
ar y
c a
d b
fi eld
Ġ B
Ġn s
Ġb y
Ġas sert
. .
Ġw h
er ror
m s
at or
3 2
1 0
ĠT he
i p
ss age
1 2
C on
ĠT rue
ce pt
ĊĠĠĠĠĠĠĠĠĠĠĠĠĠĠĠĠ ĠĠĠĠĠĠĠ
Ġ ĊĠĠĠĠĠĠĠĠĠĠĠĠĠĠĠĠĠĠ
p ort
o re
__ (
vi ce
i r
te n
un d
O R
en er
th er
sc ri
Ġt ype
de x
pon se
pe c
Ġo ut
' ):
o s
Ġa t
Ġ U
re ad
app end
Ġ al
E N
j o
te s
o k
Ġra ise
Ġo s
A L
######## ########
l ate
u ser
ri te
re ss
Ġres ult
ĠĠĠĠ ĠĠ
ĠF alse
m l
w a
ar i
u ment
co l
u th
==== ====
ti c
me thod
o ck
te nt
Ġ @
Ġ list
de d
f e
6 4
li b
T est
E T
Ġ )
-------- --------
il l
( [
ing s
Ġw e
v ent
qu i
g n
o bject
tri bu
Ġa re
Ġ[ '
Ġ }
Ġ key
Ġ{ '
F ield
lo g
iz e
d s
an s
F alse
ic ense
Ġ Re
wor k
he ck
p p
ra y
T ype
Ġf unction
z e
di ct
te mp
Ġv er
o u
a ve
Ġ V
as k
ce ption
in fo
st ri
la y
Ġm ode
ĊĊ Ġ
Ġ R
2 5
Ġ len
ce s
Ġc l
e c
in it
m in
re n
k w
b le
lo ck
e xt
u st
s on
co unt
g er
( ):
p h
ar get
S T
Ġ 4
in stance
Ġc ls
ĠL icense
1 1
n et
Ġ+ =
de n
Ġdef ault
re e
j ang
tion s
li f
ul d
. __
f t
ti ve
jang o
Ġm odule
and le
mm and
Ġt ry
co mp
li ent
a mple
h is
an t
// //
Ġ H
Ġp rint
Ġex cept
D e
up date
se s
str ing
Ġp re
ta in
ter s
A N
Ġs o
ĊĠĠĠĠĠĠĠĠ Ġ
Ġ ro
Ġc an
um ber
def ault
Ġd o
m b
con fig
n o
si ze
' '
Ġn ew
tr y
b ack
c ur
at us
p en
th on
S E
Ġ time
Ġf ield
ab el
g in
jo in
[ "
L E
R E
for mat
Ġo bject
pe ci
Ġw ill
lo ad
g ht
l l
c al
Ġe lif
k en
u ct
P ro
E x
: //
Ġu ser
g roup
a pe
Ġ ##
g ra
op y
st art
st ate
Ġs ho
Ġpa th
n ode
S t
U T
u ti
' }
" ]
u te
se d
u me
o st
Ġ[ ]
Ġlo g
ow n
Ġo ption
Ġh e
u c
I C
Ġn o
Ġcon st
on g
w rite
Ċ ĊĠĠĠĠĠĠĠĠĠĠĠ
s ub
field s
scri ption
co m
kw args
Ġ 5
ma ge
ĠT his
at tr
j ect
for m
Ġh as
0 4
C o
le ment
1 3
fi x
Ġ \
ate d
ma in
o g
1 6
m ber
n d
w w
ul l
Ġn p
c reate
ĠI f
d a
Ġs ys
N ame
Ġp ass
ari able
ma x
c or
Ġ[ ],
b y
mode ls
00 00
er y
'] ,
0 2
g th
I D
tribu te
ser ver
j son
G et
i v
Ġ line
ar d
Ġ all
Ġs ub
g ument
ti al
ĠI n
Ġ **
() )
Ġco mp
ht tp
Ġver sion
cl u
i m
co re
ri ght
9 9
Ġcl ass
Ġ k
ver sion
e e
or m
Ġ le
wor d
C T
Ġs up
ig n
Ġn ode
Ġb u
Ġs h
o und
Ġ- >
i me
si gn
p i
č ĊĠĠĠĠĠĠĠ
` `
. """
vi r
pec ted
s ing
w ith
1 5
ar ch
Ġc ol
C h
Ġa dd
li t
Ġ{ }
i tem
a il
] .
Ġre quest
ĉ ĉ
in ter
Ġstr ing
ar n
u al
() ,
c ation
m d
r un
Ġa c
Ġcon text
wa re
re quest
ig ht
la ce
Ġout put
lin k
che ck
I ON
ctor y
Ġsho uld
val id
1 4
in dex
2 2
3 4
Ġme thod
S et
1 8
t s
qui red
lo at
or y
v el
re am
R O
D E
Ġc ur
b ase
ar k
un c
d ing
res ult
con text
Ġcon fig
ho st
\ \
Ġc heck
'] )
Ġs peci
re turn
< /
Ġin t
V alue
! =
ne ction
o bj
me mber
Ġp o
** **
d o
t le
as h
stri bu
re f
par se
A dd
Ġ` `
Ġ error
Ġp er
Ġ la
č ĊĠĠĠ
w e
ma p
qu ery
in e
' t
Ġp y
re g
K e
Ġ !=
7 7
Ġv al
> >
ul ti
pa ce
ro w
ar ray
Ġa pp
le d
m it
i x
E D
se nt
a k
s o
3 3
' \
re p
A M
T ER
i ch
' s
temp late
t ings
param s
Ġo ther
si ble
2 0
Ġ url
1 9
p l
ĊĠĠĠĠĠĠĠĠĠĠĠĠĠĠĠĠĠĠĠĠĠĠĠĠ ĠĠĠ
o id
mp ty
Ġh ave
F ile
Ġst ate
i te
d jango
Ġres ponse
a uth
A S
u se
u d
Ġ /
all y
8 6
mo ve
r ame
a y
me ssage
an n
p s
lo b
er s
I L
2 4
r c
1 7
Ke y
ma il
out put
net work
re ct
Ġuse d
ter n
Ġ |
st atus
IN G
st a
uti ls
i ty
in put
Ġdi ct
Ġ li
ti tle
a v
Ġpar am
3 0
A B
Ġc reate
a x
u mp
andle r
n ew
č Ċ
t able
a ch
s g
Ġ 6
Ġis instance
5 5
U R
ro ot
tr ing
Ġc ode
Ġb o
b e
y n
m an
mode l
t ra
Ġc all
and om
Ġi tem
Ġh t
C H
Ġme ssage
ap i
name s
ub lic
Ġar gs
c all
c lo
() .
Ġ &
A G
Ġr un
Ġin stance
8 0
c lient
c s
ff er
ĠA N
P ar
Ġan y
le ct
Ġy ou
bu g
len gth
le te
per ty
le an
A t
6 6
ar g
s ys
Ġ .
3 5
I G
lin es
Ġn e
======== ========
str u
A P
ut o
Ġ end
clu de
u f
a ction
" ),
fi l
fi ed
he ader
m is
U L
sp lit
Ġre g
L ist
con st
ation s
8 8
Ġb ase
d oc
l abel
Ġm o
I d
Ġi d
Ġ> >>
um n
or g
EN T
res ponse
I S
r an
type s
Ġwh ich
Ġ z
ĠE x
con tent
Ġ text
Ġw or
r ans
Ġv i
R es
Ġ X
Ġin put
Ġb ut
de nt
E n
ms g
Ġn umber
ra p
Ġc opy
( (
') )
Ġun der
Ġ j
Ġm atch
t ing
Ġvalue s
s k
ft ware
D i
7 4
Ġst art
3 6
vi ew
t in
Ġt arget
A C
8 4
Ġs ource
od y
M e
c re
v ed
3 9
sion s
el p
U n
p ri
ht ml
p rint
Ċ ĠĠĠĠ
up le
ser vice
s ource
T ime
5 6
//// ////
Ġde scription
' .
################ ################
n er
Ġ one
t ro
t arget
or ted
o me
T o
ĠT est
Ġwh en
p v
Ġd oc
ri al
or s
M ode
} ,
O T
ise s
pa ck
Ġma x
v ar
sh ape
b in
ur se
Ġcon tain
.. .
n ot
2 9
f y
5 0
3 7
Ġmode l
po int
co mm
it s
Ġhe ader
8 9
c ri
fa ce
me n
c ate
pro cess
Ġ Q
Ġco mmand
Ġre quired
i tial
ti es
to ken
op tions
Ġex pected
fo o
op tion
Ġar gument
ame ters
Ġr ange
stru ctor
5 9
ti fi
is ter
e vent
mat ch
ĠRe turn
Ġf a
Ġd ate
le r
bu f
Ġex p
E X
C O
N U
AN T
te ger
Ġma y
---------------- ----------------
{ '
ol s
l d
ĠC on
Ġ' ''
ta g
D ata
e qual
Ġcur rent
Ġon ly
Ġht tp
ag er
b lock
u a
value s
ĊĠĠĠĠĠĠĠĠĠĠĠĠĠĠĠĠĠĠĠĠĠĠĠĠĠĠĠĠĠĠĠĠ ĠĠĠĠĠĠĠĠ
ch ange
object s
at ure
ĠG ener
2 7
id th
ĊĠĠĠĠĠĠĠĠ ĠĠĠĠ
Ġt ra
I M
ment s
Ġm ust
ir st
Ġdi stribu
ex p
Ġfor mat
Add ress
5 4
Ġin dex
2 6
c y
T T
u res
op s
L O
fe ren
le ction
ĠD e
Ġ Y
vir on
op en
[ :
tro l
00 0
m od
Ġch ar
iv en
re ctory
lob al
Ġm sg
i es
file name
l an
Ġa d
Ġfield s
S er
bu ild
n um
er r
s or
P E
Ġoption s
P O
S e
qu en
tr ans
st d
ad ata
u g
Ġg ener
Ġ 7
ta il
c ted
co ding
= [
i code
Ġto ken
] [
ind ow
p ass
a re
co mmand
f unc
b s
o o
u id
Ġ up
R a
C ase
ock et
g ing
fil ter
ur ation
Ġ' %
ww w
e p
ns or
( _
py thon
ĠO R
la gs
Ġo pen
} )
Ġ --
A D
8 7
c r
Ġ' \
S tring
Ġo bj
ch ar
Ġname s
add ress
B ase
Ġcon tent
Ġ te
Ġe vent
ri c
Ġs ize
i mage
Ġch ange
IT H
Ġg roup
ET TER
co py
P o
ol ume
cor d
ĠL ETTER
scri pt
id s
a in
in al
o te
Ġfile s
Ċĉĉ ĉ
Ġre ad
d f
si tion
th e
n p
Ġh ost
Ġd b
f unction
ĠV alue
Ġa ction
A r
s te
ĊĠĠĠĠĠĠĠĠ ĠĠĠĠĠ
Ġe xt
clo se
d uct
4 4
Ġ J
'} ),
tribu tes
pa ge
mb da
ES S
f loat
Ch ar
ĠP y
key s
Ġsup er
ex ten
ma tion
Ġ1 0
st ore
o f
a th
Ġp l
ĠI N
Ġ ]
f ind
ut f
Ġar ray
ĠA n
Ġg iven
ex ec
an y
Ġdo es
con n
u gin
fa il
ĠO F
u int
i on
ca che
i li
Ġd jango
Ġin ter
5 7
Ġf irst
0 9
0 3
H E
At tribute
v oid
or der
D O
s pec
2 8
x ml
lo t
Ġ server
Ġm ore
Ġ' ,
m ark
M P
f low
Ġ} ,
i ter
m y
ĠW ITH
ĠG NU
F F
ĠS ee
e mpty
U S
cri pt
ist s
di tion
ile d
', '
" .
č ĊĠĠĠĠĠĠĠĠĠĠĠ
Ġpa rent
ri d
Ġ update
gra m
Ġar g
he re
lic ense
Ġm ock
ĠP ublic
Mode l
Ġval id
Ġo p
t ual
Ġ( "
0 6
id get
O bject
re ak
m ary
Ġ 8
ĠGener al
el l
M L
Ġf ol
b ar
ti ty
x y
3 8
Ġc a
: `
Ġp ack
fo re
pa rent
Ġmode ls
q l
ith er
po s
B u
~ ~
pro ject
N ode
0 5
u age
ES T
Ġh elp
U p
ĠValue Error
ann el
)) )
file s
Ex ception
Ġpro vi
a ke
i mple
ses sion
ang uage
t adata
se arch
U N
ot al
Ġwor k
sign ed
Ġro ot
ch ild
ĊĠĠĠĠĠĠĠĠĠĠĠĠĠĠĠĠĠĠĠĠĠĠĠĠĠĠĠĠĠĠĠĠ ĠĠĠĠĠĠĠĠĠĠĠĠĠĠĠĠ
di t
Ġi mp
" >
item s
st ream
Test Case
Ġu id
Ġm in
Ġ 9
Ġv ariable
set tings
Ġt rans
ol d
ra tion
opy right
le ase
de bug
Ġo per
iz ed
c md
AL L
I pv
N ot
pe ct
t ask
T R
Re turn
Ġl abel
feren ce
it test
Ġb ack
I P
ra w
x b
y le
late d
Ġp art
un k
ĊĠĠĠĠĠĠĠĠ ĠĠ
0 7
tin ue
de vice
orm al
Ġ2 01
o us
s y
ame ter
Ġfile name
2 3
Ġa uth
arn ing
fi c
iz er
Ġf il
fi r
f ter
2 01
Ġpar ser
C heck
x a
**** ****
de scription
ĠReturn s
Ġ K
mo ck
Ġo ver
de lete
Ġu sing
ch ed
a st
Ra ises
x c
en v
rep lace
assert True
ĊĠĠĠĠĠĠĠĠĠĠĠĠĠĠĠĠĠĠĠĠĠĠĠĠ ĠĠĠĠĠĠĠ
Ġt able
cur rent
Ġe lement
str uct
ĠAN Y
6 7
la g
Ġfor m
que ue
) ),
Ġ query
to col
pro perty
Ġwh ile
I s
lo cal
Ġre p
Ġi mage
n ing
sp lay
* -
s um
Ġa g
2 00
et a
r ange
al led
Ġp ort
x e
Ġl ong
Ġs y
o ther
ĠC o
c p
Ġn et
Ġma ke
Ġb lock
Ġdistribu ted
assert Raises
v en
li ed
F or
co pe
t on
pre fix
Ġparam s
lic ation
C ON
Ġor der
r ate
Ġ" \
ĠC ON
for mation
yn c
Ċĉĉ ĉĉ
T ext
i e
) ]
ma ke
6 9
O UT
TT P
f ault
con structor
pre sent
Ġ- *-
o ver
ver t
i ce
cl s
4 9
on t
ample s
Ġc lient
li sh
i b
f ul
Ġ q
a le
le vel
lay er
ĠC opyright
U ser
Ġbu ild
Ġin to
Ġe ither
i fi
ri x
a tive
F a
u i
s with
able d
ĠU n
Ġf ound
i ve
stri p
D I
pe d
as ses
ho w
T he
Ġex ception
AR R
Ġat tr
IT Y
Ġco mm
Ġe ach
tri b
Ġ2 00
res ource
Ġwith out
Ġne ed
Ġc ase
T ag
po st
ĠS t
AT IN
p op
at ab
Ġse e
O P
g o
lic y
res sion
in ed
f rame
N o
A c
on ent
Ġt ag
ĠL ATIN
x f
Ġcon nection
AT E
ĠA r
Ġmo di
quen ce
n umber
at s
ra ct
at ing
') .
1 00
s up
Ġro w
atab ase
Ġf e
7 9
H e
Ġn um
C l
og le
Ġc or
ex ception
co urse
Ġ lib
uti l
v ariable
F I
bo x
Ġ template
Ġp ri
Ġcon tinue
C L
Ġch ild
lan k
st all
lo cation
sta tic
Ġ' .
[ -
h as
Ġw as
AM E
uc cess
ĊĠĠĠĠĠĠĠĠĠĠĠĠĠĠĠĠ ĠĠĠĠĠ
Ġ' /
Ġy ield
ri es
o ff
r ary
Ġg ra
i ck
C ol
ĠS o
le ss
Ġst atus
Ġso me
4 8
ARR ANT
Ġt uple
ĠW ARRANT
5 8
Ġs ame
ili ty
Ġspeci fied
comp ile
tail s
ub le
Re quest
ĠPy thon
la st
. ,
if y
Ġ json
') ])
me ta
2 1
ff e
w o
Con fig
i que
b ody
( *
Ġso ftware
d u
Ġp age
Ġfol low
0 8
m t
g ener
ust om
Ġal low
L o
P ath
Ċ ĠĠ
Ġ ter
ut ure
ri ver
ĠY ou
ac count
ĊĠĠĠĠĠĠĠĠ ĠĠĠĠĠĠ
Ġlog ging
p k
t rue
Ġde st
M A
c c
ig h
ail able
Ġresult s
Ġb reak
pass word
Ġla st
ex pected
w idth
par t
vir tual
Ġth en
con d
p atch
Ġf loat
Ġs ign
Ġ" %
iz ation
Ġres ource
Ġ kwargs
b it
t d
ver se
F A
ĊĠĠĠĠĠĠĠĠĠĠĠĠĠĠĠĠĠĠĠĠĠĠĠĠ Ġ
T H
I tem
Ġdi rectory
date time
us h
ump y
Ġp os
par ser
Ġc md
C E
I O
ub lish
ulti p
at ures
ar gument
che ma
el per
Ġ[ "
n own
T Y
I B
ab s
lo c
re q
ĠF or
con nection
m on
res h
e lement
e mp
d own
V ER
Ġpro cess
ad min
7 6
P tr
ĊĠĠĠĠĠĠĠĠĠĠĠĠĠĠĠĠ Ġ
s ave
on ly
t op
Ġt ask
tic le
. "
e mail
si te
Ġ' '
Ċ ĠĠĠĠĠĠ
th ing
or age
ab ric
di stribu
n ow
er sion
u ch
at tern
w er
ĠW e
mo te
Ġreturn ed
header s
at form
Di ct
Ġ link
en code
per ties
ge x
Ġex ec
tern al
H T
ol der
Ġde l
ĊĠĠĠĠĠĠĠĠĠĠĠĠĠĠĠĠ ĠĠĠĠ
Ġd type
Ġdi s
x x
Ġbo ol
Ġ ],
'] ],
a a
a ti
U P
F T
E lement
Ġn ext
s rc
ĠP ro
Ġle vel
4 0
re move
Ġm an
ction ary
se rial
de o
Ġ qu
m al
B y
C all
c f
Ġex ten
read y
gra ph
or d
6 5
Char Field
ne xt
Ġa x
ĠEx ception
Ġex ist
ri de
] :
con f
w h
3 1
set s
7 5
Ġy our
Ġr andom
Ġdate time
Ġpar se
Ġpro ject
r ule
V i
Ġset tings
Ġre t
O ut
ate g
u tion
x d
B o
Me ssage
e ar
Ġw ri
la tion
Ġdoc ument
ok up
Ġsh ape
Ġm ark
Ġse s
Ġw rite
test s
bo se
si t
Ġn on
St ate
ex it
Ġat tribute
G L
h ash
O L
( ?
pen den
s a
h andler
UL T
Ċ ĊĠĠĠĠĠĠĠĠĠĠĠĠĠĠĠ
ĠP ar
Ġa b
" ))
ul ar
ch o
Ġpro gram
i as
conn ect
Ġde vice
un signed
bo ol
fir st
c er
Ġlo ad
Ġs p
mis sion
Ġobject s
P I
sys tem
se nd
" ],
Ġin fo
Ġlo cal
(' \
6 0
4 2
do main
op er
Ġ ...
de l
c le
", "
'} ,
g en
Ġo ld
ti l
d type
qui re
IL ITY
Ġreg ister
di rect
A A
7 8
'] .
y p
à ¤
ĠI S
z er
pa che
ck et
ant s
ĊĠĠĠĠ ĊĠĠĠ
Ġadd ress
Ġg lobal
Ġa v
ĠSo ftware
Ġsup port
in k
po ol
AR T
Ġtest s
ĠT O
di s
) ):
25 5
S S
col umn
ur i
der r
Ġli mit
P ack
Ġor ig
n ull
i o
Ġv oid
v es
as ter
Ġ ge
` .
en viron
p orted
si s
vi sion
Ġ ),
f s
S ize
//////// ////////
4 5
Ġheader s
f n
low er
col or
f l
Q U
Ġ err
comm on
Ġof f
Ġr ule
6 8
ĠT HE
ate s
(' /
Ġthe re
Ġco unt
N AME
st ack
Ġm ap
Ġf ind
me tadata
'' '
Ġte nsor
um ns
t x
Ġhe re
" ):
t ree
Ġses sion
p c
Co unt
In fo
r andom
Ġ> =
ca le
ome try
sta mp
Ġ ,
ing le
tain er
ro und
Res ponse
] ],
Ġpy thon
et ch
Ġargument s
rap per
i ces
Q u
ĠG et
en try
de v
ce iv
Ġpo int
M odule
Ċ ĊĊĠĠĠ
st op
i al
ĠF OR
Ġw here
license s
s how
Ġ lines
Ġs k
Ġin clude
Ġ temp
ĠS M
E vent
di a
v o
r s
by tes
M an
Ġb ody
Ġen try
P re
Ġit s
Ġla mbda
ĠAN D
Ġext ra
Ġpre fix
Co mp
v olume
ect or
re lated
f in
v ate
Ġa fter
h a
f er
us ter
Ġco m
node s
se lect
4 7
Ġst d
Ġth an
Ġ{ "
mp l
A ll
jo b
t xt
c an
8 5
re quired
ĠWITH OUT
Ġh andle
K E
R L
ĊĠĠĠĠĠĠĠĠĠĠĠĠĠĠĠĠ ĠĠĠĠĠĠ
den tifi
ĠT ype
Ġ service
Ġde tails
T ra
N s
A l
{ }
si de
a ct
f uture
ex ists
L og
Ġma in
) /
G roup
Ġf ail
Ġo pt
Ġ right
ction s
is h
Ġa ct
Ġvi ew
Ġi mple
Ġfil ter
= %
] ))
start swith
H andler
Ġth read
Ġc lo
se n
Ġl ate
4 6
Ġc r
Ġc ho
f lags
b a
ut ton
EX T
user name
method s
Ġ' -
ĠĠĠĠĠĠĠĠĠĠĠĠĠĠĠĠ ĠĠĠĠĠĠĠĠĠĠĠĠĠĠĠĠ
AB ILITY
Ġimp lied
h andle
N et
5 3
s l
X X
as ic
ser ved
================ ================
st yle
Ġspeci fic
change d
ĊĠĠĠĠĠĠĠĠĠĠĠĠĠĠĠĠĠĠĠĠĠĠĠĠ ĠĠĠĠ
pack age
ight s
A n
ĠS et
a uto
ultip le
c en
Ġsho w
C reate
b lank
b b
auth or
w it
C K
Ġpass word
D ate
L IC
Ġ ..
men ted
De vice
ĊĠĠĠĠĠĠĠĠĠĠĠĠĠĠĠĠĠĠĠĠĠĠĠĠĠĠĠĠĠĠĠĠ ĠĠĠ
Ġlog ger
Ġ' _
P RO
p ol
ĠSM ALL
Ġb in
Ġco urse
Ġget attr
we b
u x
] ),
h er
V E
ceiv ed
exec ute
ra g
5 2
Ġreturn s
Ġm at
_ (
F rom
U B
9 6
> <
Ġin itial
to ols
Ġ title
Ġin di
R un
ĊĊ ĠĠĠĠĠ
n ap
Cl ass
Ġbe fore
'] ['
c ase
Ġst ream
al og
Ġt rue
error s
al s
Ġerror s
L e
mis sions
al id
Ġin formation
Ġcon n
pro duct
Ġpack age
Ġ' __
( {
Ġf unc
I ES
8 2
'] :
T O
He ader
Type Id
Ġfollow ing
k er
C C
m ory
wa it
ĊĠĠĠĠĠĠĠĠĠĠĠĠĠĠĠĠĠĠĠĠĠĠĠĠ ĠĠ
Ġal ready
9 7
u ite
ci es
e val
u uid
Ġca che
Ġlen gth
Ġf in
, '
D o
D es
g r
ver y
Ġen v
ex cept
r t
f d
time out
AT ION
-- -
OR T
Ġal so
gin e
Ġa uto
Ġdi ctionary
de p
O ption
dition al
result s
w ise
Ġ Key
Ġo b
as si
man ager
S ub
v m
Ġst a
in clude
de st
Ġf ull
en sor
AB LE
al y
z one
In ter
Ġg o
ĠAn sible
P er
ĠS tring
pro to
me r
arn ings
č ĊĠĠĠĠĠĠĠĠĠĠĠĠĠĠĠ
m ask
Ġf abric
Ġhas h
UR L
Ġpar ameters
group s
9 4
Ġh o
Ġl anguage
s pace
U M
A pp
r on
AP IT
ĠF ound
Ġen coding
s cope
Ġi gn
us r
Ġre q
Ġun icode
Ġ' <
ca use
ic al
Ġtime out
ĠA dd
i de
Ġsys tem
Ġde p
8 3
. ')
as on
Ġa ss
S h
t k
m i
') ],
ER R
ci mal
Ġ" _
APIT AL
ĠC heck
th read
Ġ $
L I
In teger
ro p
w in
] ]
ĠC APITAL
M O
Ġn umpy
In dex
ac tive
reg ister
S I
. ")
di st
= (
Ġhas attr
: %
Ġs ample
od ing
ore ign
co der
ex ample
Ġ< =
- \
add r
De fault
u ter
p r
Ġe mpty
Ġstr uct
std out
ter min
mb ol
bo ok
F OR
de code
N S
9 0
TY PE
im um
P y
Con tent
n el
Ġoption al
Ġf l
pl ugin
T h
9 5
g g
rep r
le t
d ump
Ġpar ameter
Pack et
Ġin st
ĊĠĠĠĠĠĠĠĠ ĊĠĠĠĠĠĠĠ
Ġv ar
in i
co mple
ac cess
] ['
la mbda
Ġchar ac
) ;
Ġcreate d
bu ffer
Ġu s
Ġi ter
Ġprovi ded
ĊĊ ĉ
off set
as sed
pro t
Ġto p
in itial
Ġx ml
P L
ator s
AT A
ĠFound ation
n g
Ġse arch
Ġe ven
a f
Ġbe en
set up
sk ip
7 0
re c
Ġi ds
Ġcol umn
c li
T his
6 3
A d
Vi ew
E M
Ġdi ffe
Ġa p
s v
V ariable
Ġ utf
ch annel
con ds
Ġre cord
p lace
ĠI t
Ġp ublish
a it
sh ot
Ġby tes
Ġnet work
con trol
mo st
Ġf rame
) [
6 2
ĠC reate
t mp
se ction
Ġd on
FA ULT
. *
un ittest
Ġc alled
p lot
ĠC h
ol ute
( -
p lay
Ġc oding
ex c
P AT
Call back
] +
Ġav ailable
l ong
Ġ& ',
Ġmodi fy
ĠN ame
Ġre move
and ard
en tic
ĠW h
A uth
Ġ% (
7 2
le cted
F orm
A s
ION S
4 3
D is
N O
ro ll
con trib
e f
IG HT
Ġco mple
ĠN ot
Ġt f
tra in
8 1
el se
Ġc re
Ġs ocket
Ġli ke
% (
dentifi er
Par ser
). __
O r
ĠN OT
D B
R A
S tr
Ġs ingle
Ġ' --
ĠU RL
te p
Ġa bs
ĠA t
in ce
H TTP
EN SE
ok en
http s
Ġvariable s
f ull
) \
Ġcomm on
T EST
n on
c d
Ġf ree
ĠF ree
5 1
ĠI D
e b
Re g
o b
c ap
uf fix
ĠU ser
Ġt wo
~~ ~~
Ġac cess
exten d
Ġdo main
Ġun ittest
Ġkey s
Ġs cript
wa ys
log in
ok ie
cl asses
Res ult
C P
Re f
ĊĠĠĠĠĠĠĠĠĠĠĠĠĠĠĠĠĠĠĠĠĠĠĠĠ ĠĠĠĠĠ
Ġex ample
c b
Ġter ms
Ġchange d
Ġconfig uration
7 3
a red
ĠA ll
E L
t ab
Ġre n
g or
9 8
ti m
Ġb et
o red
Ġlo cation
B U
ext ra
b atch
pro file
ph a
pre ss
G G
Ġdi st
di splay
IN T
viron ment
log ger
vi der
t otal
) "
Test s
ste p
Fa ctory
Ġs rc
Ġdi splay
li ke
ca st
ic s
Ġac count
Ġw ant
Ġdi r
var s
Ġs a
: ]
I mple
Q L
( ['
9 2
Ġtype s
C R
Ġlate r
c ent
assertEqual s
Ġ1 00
if t
lin en
Ġj ust
Ġbe cause
4 1
Ġre present
Ġsta tic
M ap
> </
čĊ čĊĠĠĠ
Out put
t uple
( \
AG E
Ġp ost
ut able
ran ch
g lobal
te ra
= ['
ta gs
G ET
vi ous
u sed
Ġn ull
Ġitem s
un icode
6 1
da y
le s
H O
S ource
or ig
W AR
l ing
Ġre f
Ġthe y
Ġa pi
at tributes
Man ager
w d
ĠWARRANT IES
en coding
op t
he ad
oreign Key
de red
id x
Ġuse ful
Con text
čĊ č
Ġin teger
Ġ --------
Ġm y
f c
Ġat tributes
E nd
di o
W ith
bin ary
s ql
': {'
d le
Ġse rial
si tive
te red
di v
Ġh andler
s peci
b ot
c ry
arg v
ct s
DI R
nap shot
ti ls
N ESS
la tive
ST R
di ff
m ulti
il der
Ġe mail
Ġp assed
ĠAr gs
C ode
Ġcontain ing
A CT
li ce
UL AR
le ft
L oc
C lient
v a
u ff
ĊĠĠĠĠĠĠĠĠĠĠĠĠĠĠĠĠĠĠĠĠĠĠĠĠ ĠĠĠĠĠĠ
ys tem
ge d
L ay
Check er
L ine
Ġd atabase
emp late
Ġt a
M S
ste ad
Ġf alse
id dle
, -
call back
re cord
################################ ################################
IT NESS
Ġthe m
Ġn ow
PO SE
z ip
Ġra w
ER CH
Ġ< /
ERCH ANT
re port
'} )
> \
Ġ[ ])
a ded
i str
ĠP ART
ta ch
KE Y
w ard
ug h
he ther
ched ule
st derr
ĠP UR
Ġres p
Ġre ceived
Ġ" "
ma c
Ġs um
d river
ĠN o
ĠF ITNESS
re al
co un
o ci
******** ********
li mit
go ogle
AC K
O S
ĠH TTP
Ġmethod s
CON F
ĠPUR POSE
Ġde bug
IC ULAR
Ġ Z
__ ,
we en
Co mmand
wit ch
module s
le x
Ġax is
ĠPART ICULAR
script or
ment ation
c lean
c ul
Ser ver
ĠM ERCHANT
v s
Ġt ree
po sition
y load
= {
ax is
te nsor
9 3
. ',
_ ,
; ":
/ >
. \
" ])
del ta
lic it
di tions
G ener
Ġin stead
Ġt otal
B lock
F L
Ġ1 2
Ġde lete
ĠType Error
ĊĠĠĠĠĠĠĠĠĠĠĠĠĠĠĠĠĠĠĠĠĠĠĠĠĠĠĠĠĠĠĠĠ ĠĠĠĠĠĠĠ
wor ds
/ %
p id
to m
Ġu int
c ated
nt ax
in ation
ra int
do uble
Ġs pec
k nown
F rame
ĠI mport
St art
u ally
Ġcol or
p u
L en
Ser vice
# !
ĠMERCHANT ABILITY
ERR OR
) '
7 1
comp onent
in stall
ab c
in sert
D S
Ġex c
fe atures
Ġal ong
Ġdoes n
Ġs uccess
fa ke
S imple
po licy
T able
g it
T rans
ent ries
F oreignKey
s ort
IN D
Ġ1 6
ĠM e
b ility
) ',
in valid
end s
ge st
st ats
Ġm is
ro ugh
IG N
V AL
In put
indow s
ĠO ption
b row
penden cies
u k
Ġcor rect
" \
Ġc al
par ameters
at tribute
o lean
Ġinter face
M M
end ing
dir s
re lease
Ġse nd
child ren
Ġd own
Con nection
ann ot
Qu ery
Ġtensor flow
Ġt ri
F O
Ġnames pace
ĠO pen
Ġcall back
S H
un ique
i mp
g ate
Ġs ure
se e
ĠS e
I nt
Ġan sible
PAT H
In stance
Ġcol lection
pl atform
Ġdef ined
un it
t f
ke ep
names pace
( {'
s ure
ĠTO DO
ra ph
den tial
de sc
i k
N umber
Ġ' ',
ĠA PI
app ing
C A
T oken
ĠD E
inter face
Ġpublish ed
Ġoff set
fi t
ad ded
s ample
Ġset up
0000 00
ase s
sp ort
P age
ĠIn c
Ġi pv
S ER
pro xy
w ar
pro perties
le ctor
Re ad
Ġf lags
Ġ" /
d ot
attr s
b r
Ġattr s
op ts
re t
Ġn ormal
tic al
- %
St ream
u red
C S
Bu ffer
s m
Ġv olume
n ormal
ĊĠĠĠĠĠĠĠĠĠĠĠĠĠĠĠĠĠĠĠĠĠĠĠĠĠĠĠĠĠĠĠĠ Ġ
Ġcon trol
Ġf lag
al low
Ġtra ce
g t
s ue
A ction
P R
el lo
g ress
O n
I ter
wa y
p b
me tri
sh ip
i od
se c
ĠĠĠĠĠĠĠĠ ĠĠĠ
um my
Ġpro perty
A nd
Ġstr ings
pri mary
9 1
Ġexten sion
Ġwe b
clu ded
Ġob tain
he ight
assert False
Ġbu ffer
Ġpro duct
C lo
ti fy
W idget
qui res
Ġme tadata
) *
Ġgra ph
ol ve
b l
M ock
ol ution
ti tion
com ment
Ġrep lace
for ms
ren der
V ersion
Ġs ave
Ġs orted
s amples
comp ute
A uto
O F
cur ity
Ġc er
o se
Ġre al
In valid
Ġdiffe rent
Ġbin ary
Ġ ti
__ )
re l
t tp
Ġp atch
Ġsk ip
ue ue
lo y
ub e
Ġver bose
S ON
ĠR un
Ġorig inal
Ġnode s
#! /
Ġbet ween
U D
Ġi p
c at
istr y
j a
Ġ2 0
ge s
ĠN ote
S ta
w ri
Value Error
ĠV ersion
bo ve
M eta
s core
si ve
M ac
Ġge ometry
p attern
du ce
y ear
Ġme ta
Ġfa iled
col umns
Return s
ĠWARRANT Y
b ind
nt ry
Ġexist ing
ĠL O
Ġm od
Ġse quence
Ġcho ices
Ġi m
re po
ble m
ve lo
Ġse ction
Ġpo sition
lo ader
Ġfunction s
de s
Bu ild
ix ed
: \
Po int
Ġw ar
() [
message s
Ġa bove
ari es
Ġuser name
exten sion
assert Is
h elp
point s
Ġoper ation
w idget
re en
ma th
Ġper missions
il y
Ġ> ',
tra ce
ĠE n
A Y
Ġst yle
s ocket
Ġpre sent
H ER
che me
tifi cate
p ublic
F e
ateg ory
il tin
ot o
( __
Ġ ):
Ġw idth
we ight
Ġst ack
IM E
O f
sc ale
Ġe val
linen o
distribu te
") .
DE FAULT
Ġma th
Ġ[ [
dir name
H ash
fi cation
er o
man y
! !
F unction
Ġz ip
Ġad ded
For mat
Ġm on
Ġs imple
es ca
'] [
sa fe
V alid
I mage
ĠP er
Ch ild
st orage
Ġex ists
le ted
gor ith
Pro cess
Ġse cond
Imple mented
w n
valid ate
Ġact ual
Ġse lect
es ted
ĠD O
Ġdis able
(' %
Ġcontain s
Ġm ulti
u dent
label s
qu ote
D own
ĠĠĠĠĠĠĠĠ Ġ
FOR M
Ġht ml
il ter
s w
Ġthe se
ĊĠĠĠĠĠĠĠĠĠĠĠĠĠĠĠĠĠĠĠĠĠĠĠĠĠĠĠĠĠĠĠĠ ĠĠ
Ġb atch
ĠB ase
> '
st ract
s q
cal led
g l
Ġt mp
. '
ĠI P
Bo x
cate g
W rite
f etch
ra ises
Ġc ustom
oo lean
mo ved
n a
cp u
Ġfor ce
comm it
Ġal ways
ĠImport Error
Ġ" '
") ;
ti ce
serial ize
Ġgener ate
iddle ware
es sion
C I
doc ument
Ġlib rary
bo und
to ol
in di
` ,
Ġtra in
g h
ĠS O
ĠG L
id den
IN E
ile r
D ir
Ġ- .
w s
" }
Ser ial
di m
s ted
Ġapp lic
Ġwri ting
bo ard
h y
app lication
S ION
an k
x ff
E CT
d t
cle ar
Iter ator
Ġ} }
li p
sc ape
Ġpl ugin
ĠA uth
ĠR es
n one
O K
me d
Ġab out
j s
S ET
Ġw arnings
ĠCo mp
con tainer
F ound
Ġle ft
ur ls
Ġre distribute
z y
-------------------------------- --------------------------------
0000 0000
Ġmark er
e ff
se q
ĠP RO
sh ort
Ġset Up
le ep
in st
ab ility
in s
Ġw ait
di rectory
al ias
i re
Ġre port
Ġch annel
a e
ĠP O
ĠC ol
col lection
Ġlabel s
s chema
C a
Ġst op
O per
Ġc lean
Ġmat rix
M E
li ance
pp ing
{ {
s ume
load s
t c
mat rix
val s
Ġpack et
ĠU se
V ector
(" %
Ġlo ok
AN D
Ġs tep
ĠE X
ver age
Ġme mber
(' -
B e
Ġm ask
P ORT
Pro tocol
Ġre ference
ĊĠĠĠĠĠĠĠĠĠĠĠĠĠĠĠĠĠĠĠĠĠĠĠĠĠĠĠĠĠĠĠĠ ĠĠĠĠ
Ġho pe
i pe
Ġm ultiple
ho ok
mb ed
Ġ( (
ct ype
ĠA pache
variable s
me an
l anguage
] *
V er
Ġ% }
den tity
h elper
si ty
/ ',
Ġabs olute
Ġ" .
Ġg over
( **
u ce
exp r
ro ss
Ġign ore
Z E
ci sion
gn u
ci ty
b d
cor ds
S D
St atus
WAR E
Ġby te
Pro perty
ĠĠĠĠĠĠĠĠ ĠĠ
= _
me di
le m
fa ctory
m ul
Ġcon ditions
W N
__ ':
user s
Ġp ol
ĠA s
categ ory
input s
Ġwar ran
= {'
P l
Ġsp lit
M o
Con trol
Ġcommand s
FL AG
Ġen ume
Ġcom ment
vi deo
action s
in dent
ol ver
#### ##
T E
Ġch unk
mo di
ra ise
OR D
Ġp ick
tem s
Ġen vironment
AP I
st at
Q ueue
pre cated
ĠS er
cre t
f older
s uccess
Ġcon f
class method
ist ory
in es
Ġun ique
Ġsup ported
th is
Ġwarran ty
sp an
Ġen code
Ġfin ally
_ .
AS S
ro le
ĠD i
ĠDe fault
r and
at ter
L icense
Ġta gs
Y R
w arning
esca pe
di ent
Me thod
D oc
Ġbe ing
s pa
path s
ho uld
e dit
ix in
Ġw hether
b c
ĠĠĠĠĠĠĠĠ ĠĠĠĠ
Ġu tils
; \
pro vider
25 3
ĠL I
la v
ĠNot Implemented
UL L
u de
Ġcon structor
Ġmessage s
vo ice
ex port
US ER
Ġpath s
tifi cation
Ġdocument ation
Ġren der
a pache
he et
re ed
ct x
Ġ ::
ra tions
dential s
Ġp k
ti vi
Ġg en
w indow
us age
v ari
so le
RO M
gorith m
av a
lo op
ĠF ile
'] ),
Ġs ix
FI LE
Ġcon ver
Ġar ch
ĠL ist
re gex
or ity
w rap
Ġ_ ("
g rid
ĠK IND
en abled
Ġ} )
par ticle
R ES
Ġre po
ver bose
d c
L ink
ĠL o
Ar ray
Ġre verse
row s
Ġstd out
sy m
D IT
Ġ[ (
IN TER
a u
g le
re mote
Ġre lative
W ifi
W arning
Ġe q
Ġp attern
pa ir
res pon
l int
') ),
oper ator
o uld
te x
re r
ren cy
T ensor
u tes
R o
C ur
Ġbo th
Ġin valid
I X
ĠT h
S ocket
sent ry
fe ed
Ġ" ,
Ġsub process
Ġenume rate
Ġs ql
T EXT
Ġst ore
Ġfe ature
Ġrun ning
m k
ING S
ĠAt tribute
R andom
ic ro
tra ck
Ġ" <
b utton
D F
ma tic
ce ll
ow er
lo okup
s d
' [
fi er
De le
ĠPar ameters
ĠR a
part ner
E ntry
Integer Field
EN D
t z
') },
Ġ" -
Ġ job
Ġin stall
en gine
ĠLicense d
f alse
re st
25 6
Ġcan not
Ġb ound
Ġdi ff
con vert
I f
ĠD ata
c ss
Ġcur sor
Tra ce
pro tocol
LE CT
exception s
Ġf oo
Date Time
I R
g round
po inter
ĠM o
Ġcomp onent
Ġthe ir
12 8
] ])
am l
tr an
cur sor
Ġw idget
g reg
M ET
r f
U RE
Ġ' #
if est
Ġp h
Ac cess
M ulti
) ])
################################################################ ########
MP L
z h
Ġm ig
tain s
time stamp
Ġw ould
mo unt
Ġcon vert
re set
ĠQ t
ER S
LIC ENSE
Ġpos sible
Ġw ho
Ġapplic able
Ġexp ression
create d
Ġs ince
or ter
i mat
Ġcontain er
ĠG o
so me
B O
Ġsh ort
G R
ci i
ro id
CO L
ĠWh en
Ġc f
[: ,
Ġre mote
ance l
' re
\ '
AN G
T ree
Ġe d
S ystem
for ce
Ġvi deo
Ġcl asses
la in
i ases
c la
{ %
f p
D ATA
Ġopt s
() ),
Ch ange
Ġclo se
Par se
Ġme r
ĠT o
ri tems
v ing
Ġelement s
= ',
our se
Ġurl lib
Ġth rough
P UT
P AR
M et
Attribute Value
re ction
Ġ_ ('
yn am
Ġag ain
Ġc ap
= -
feren ces
Ġst ri
le ar
Ġfa ke
Ġc tx
FT WARE
S M
PO ST
Res ource
di sk
i tes
penden cy
Ġass oci
Ġe very
def ined
([ [
ur ing
li ght
se quence
( %
Ġse ss
Ġ[' _
Ġ layer
Ġgener ated
IC E
Ġre lated
ith ub
w arn
Ġd f
Ġwh at
//////////////// ////////////////
ag ent
ord in
Ġex press
Ġmo ve
sup port
() ))
im g
Ġs c
cre ment
ee ded
C G
' "
Ġs uch
ĠKey Error
ĠO n
Ġs ort
po se
m ig
Ġcontent s
p ing
Ġ' ')
t ten
Con tainer
e q
url lib
Ġbase d
assert In
s ten
B oolean
const ant
Ġdistribu tion
ac y
u ation
b ad
ir tual
M any
Ġf p
clo ud
Ġpa ir
si g
ĠCon fig
add ing
pa re
he x
Par am
Ġ ----
Type s
entic ation
ĠH T
age ment
Ġpro to
ume ric
ve ctor
Ġvalid ate
indi ces
ini tion
Ġcharac ters
. %
Ġo k
Ġpro tocol
Ġ1 5
in teger
l t
Col or
S O
Ġ1 1
de scriptor
AC E
č Ċĉ
Ġbu f
Ġmis sing
Ġdi rect
Ġ queue
se p
cf g
si mple
end swith
F ilter
Ġauth or
m aster
B A
in ja
Ġpre vious
Ġun it
UT H
ut or
"] .
ĠSO FTWARE
up per
Ġ-------- --
option al
Ġrequest s
as ync
ĠB AS
si d
OR S
DIT IONS
Ġcomp liance
Up date
Ġinput s
Ġo ur
ĠM ake
Ġo ps
([ ])
ĠUn less
l ang
ĠA R
F C
g ger
ĠHT ML
e lif
Ġspeci fy
block s
xt ure
RE CT
Ġv m
le g
ne ss
Ġv ari
f lag
si x
li m
+ +
Ġs chema
Ġhttp s
Ġla w
dump s
par ts
Ġoper ator
00 01
Ġpart s
ap ter
) ",
U E
at om
P T
Ġ license
tivi ty
Ġp lace
Ġag reed
Ġs cope
12 7
view s
ã ģ
p g
cript or
en ter
cl uster
, \
Ġpo ol
Ġlimit ations
Ġin it
> ',
ĠBAS IS
gener ate
lay out
Ġgover ning
mark er
Ġh ow
h s
fo und
Ġ keep
Ġse par
ĠCON DITIONS
cen ter
ho me
E C
ĠT H
P C
Ġapp lication
Ġd one
P RE
ĠD o
P ER
ĊĠĠĠĠĠĠĠĠĠĠĠĠĠĠĠĠĠĠĠĠĠĠĠĠĠĠĠĠĠĠĠĠ ĠĠĠĠĠ
c ustom
up lic
T emplate
P a
Ġ3 0
ces sed
und le
ĠO r
Ġlo okup
Q t
pri vate
G e
u ted
Ġf inal
Ġdefault s
Ġo c
Ġno tice
f ont
ign ore
Ġcopy right
down load
zer os
S A
Ġkey word
ctor ies
S G
v ation
M ixin
Ġother wise
, )
B utton
Ġset ting
M ax
zer o
Ġ join
ffer o
ĠA ffero
ss l
Inter face
$ ',
host name
Ġdo uble
lav or
d n
fil ters
Ġ[ ('
g ative
Fa iled
T arget
Ġover ride
ĠNotImplemented Error
Ġid x
ĠAttribute Error
Ġex pect
MA X
inter val
pa ces
Ġap pro
Ġpy lint
12 3
' ^
CL UD
ar s
av ed
Ġco uld
fi ci
um b
en able
l ass
Ġpl atform
O pen
] ',
W indow
h older
Ġk er
n an
SI ZE
Ġgener ator
RA W
r l
fa ces
Ġname d
Des criptor
g y
P ort
L abel
ST AT
b asic
X ML
ĊĠĠĠĠĠĠĠĠĠĠĠĠĠĠĠĠĠĠĠĠĠĠĠĠĠĠĠĠĠĠĠĠ ĠĠĠĠĠĠ
ĠA S
Ġ" --
12 34
default s
S y
G ui
Ġf n
w ifi
Ġcor respon
Ġde sc
Ġ1 4
it or
Ġ> >
I E
Type Error
Ġse n
> "
Ġr v
Ġ3 2
rag ment
Ġdi sc
Ġw ay
čĊ čĊĠĠĠĠĠĠĠ
lib rary
__ .
ä ¸
`` .
Ġn eeded
Ġe st
z z
Ġwor d
Ġcl uster
Net Device
co me
Ġw indow
r pc
Ġlo c
mb ols
res ses
lo ss
lay ers
) ],
b f
Ġcol umns
Ġin dent
ak es
re quire
Ġ( %
ĠB O
event s
Ġh ref
Ġallow ed
as cii
IM IT
C om
ee k
se cond
ĠP o
Ex ten
Auto Field
CLUD ING
i ver
BU G
Ġpro perties
Ġs m
ĠS T
IP T
Ġout file
ish ed
ĊĊ Ċ
Ġs im
Ġuser s
f r
AR Y
am o
Ref Count
O ne
Ġ" __
'] ]],
al most
a fter
c m
sp atch
Ġme mory
ĠO S
inter n
command s
LO CK
content s
Ġdi men
Ġre quire
ĠS H
n n
Ġm apping
Ġconst ant
by te
over ride
se curity
Ġme tri
ĠO TH
ch ine
ĠM ock
s parse
Ġp id
rule s
DE L
ha vi
Ġtra ck
IT E
ate rial
ch ain
ar ge
ĠA d
ĠCON TR
H elper
S ession
resource s
Th read
Ca che
Ġlo op
[: -
Ġuse s
exp and
ĠF ROM
re ference
Ġre tri
fe ature
i er
Simple RefCount
D ES
ro ute
Ġmatch es
\ "
l at
Ġwith in
Ġinstance s
Log ger
d one
ener p
Ġex it
her it
d ar
CR IPT
py test
cre en
L L
Ġst andard
an ti
output s
al pha
pro p
men u
re verse
Ġe qual
ĠA c
Ġevent s
ĠGo ogle
T ask
c ing
al t
M ENT
resh old
Ġright s
mon th
ĠĠĠĠĠĠĠĠ ĠĠĠĠĠĠĠ
ti tem
mit ted
M atch
Ġd t
Ġpl t
e a
ĊĠĠĠĠĠĠĠĠĠĠĠĠĠĠĠĠĠĠĠĠĠĠĠĠĠĠĠĠĠĠĠĠĠĠĠĠĠĠĠĠ ĠĠĠ
Net work
b i
Ġchange s
ex ist
ynam ic
.. ..
Ġma c
fi ll
Ġre ason
r type
Ġpoint s
en tity
Ġus age
token s
Ġ' $
vent ory
" '
time s
w here
pi ck
s uffix
Dele ter
Ġfor ms
Ġimple mentation
se conds
ĠT ext
(' --
res p
ĠĠĠĠĠĠĠĠ ĠĠĠĠĠ
Ġ Error
P Y
que sted
gra de
p ng
cor rect
Ġcomp ute
Ex p
Ġcharac ter
Ġco un
te cted
IN FO
s leep
__ ()
Ġfe atures
ser tion
pe ed
\ .
ti o
Ġspeci al
B ack
i fied
`` ,
Ġdi sk
li ter
Ġtarget s
Ġb it
Col umn
one s
vir t
Ġcall able
reg ion
ta ct
source s
V ENT
lo ts
d om
Ġpre di
Option s
-------- ----
Ġp op
av ailable
P ri
Ġde termin
D R
Ġpar sed
Ġpro xy
M B
Ġassoci ated
Ġhe ight
brow se
ro t
Ġin v
Ġan other
co ls
Ġp ublic
CH E
cho ices
G raph
name d
ĠA l
=' ',
(" \
ach ed
m ar
un ded
UT E
00 1
Ġupdate d
, "
W rapper
lo aded
Ġpo licy
ang le
igh b
is o
Ġb lank
own er
al le
r p
pk g
Ġs pace
_ )
me dia
ch unk
######################################################################## ######
amo unt
sit ory
component s
N OT
no te
ite ritems
VER SION
Ġpy test
link s
Ġme an
d at
so ft
Ġre st
O p
back end
Ġmodule s
U U
bu cket
f ree
Len gth
DateTime Field
comp any
Ġad min
Ġdi vision
co res
dep th
am ily
ist ration
Ġto o
Ġst derr
ne cted
Ġc ategory
un ct
static method
def ine
, ))
Ġen tity
le arn
Ġre served
Ġtoken s
ren ce
ten ant
ran k
M in
Ġlo ck
a z
Ġgroup s
sign al
on s
ut ing
I F
S QL
ĠC OP
d atabase
Ġre direct
Ġin te
' ",
ar is
g ments
N ew
Ġs cale
Not Found
Ġre l
S Y
Le vel
Ċĉĉĉĉ ĉ
intern al
Ġsign al
i a
f b
Ġlo gin
i con
Ġsy m
gener ator
E G
Ġb ar
] ):
Ġre lease
target s
E dit
assert All
pro c
ĠM an
un ch
Ġpro file
Ġle t
ĠX ML
ĠA pp
b ranch
p tr
Ġse conds
Ġz ero
N e
E mpty
Ġrep r
U SE
Ġac tive
ĠT ime
Ġoutput s
sum mary
, ),
t ty
or k
R ange
S up
trans form
ver ify
Ġrule s
n umpy
st ant
r ong
ff ff
Py thon
Ġro le
Par ameter
Ġh igh
Ġad ditional
sh ift
Clo se
( ('
at rix
ati ble
L ib
Ġac cept
Ġrow s
se cret
sc al
Ġfe ed
B it
[ ^
cer t
cs v
Or der
Ġs uffix
g ment
__ __
stru ction
/> .
Ġto ol
ma pping
am ma
Ġw in
I mpl
pa yload
Ġm ost
war ds
mis sing
s napshot
e ve
v as
Ġen able
doc s
config uration
S to
ĠH ttp
Pro ject
la p
p ublish
j ust
. ",
Ġfil ters
u ate
stri ct
(" /
Ġs ite
g its
Ġe scape
Ġt x
ip v
Ġ kw
test ing
pri ce
fa ctor
ĠB u
sing le
Ġoc cur
image s
si bility
ĠRe quest
b reak
+ '
mp t
Ġg ot
Ġdata set
quest ion
n orm
sup er
Pre fix
Ġ ])
os v
ro s
an aly
Lay out
Ġvi a
ra ft
77 01
cri ption
il t
ĠS ub
/ '
log ging
FORM AT
ran sport
assert Not
Ġcf g
Ġ entries
p n
ro y
ra ys
ĠU SE
Ġw rap
ON E
Ġw x
Ġr c
ites pace
ĠV alid
an el
atter ns
d rop
ĠN O
Ġi tera
(' <
ĠM A
Ġre moved
88 59
FLAG S
abs path
Ġo prot
Ġauto matic
sh a
Str uct
Ġp e
Ġapp ly
Ġneed s
ĠJ SON
imat or
urn al
Ġex port
me mory
Po licy
base name
Ġse nt
r b
Ġde code
n u
Sta ck
( """
an sible
Ġhe ad
se cs
* .
frame work
Ex ec
SE LECT
ĠN umber
By te
Ġ- =
} }
as is
Ġback end
Ġde v
at ten
Ġen sure
en um
Ġc op
bo olean
re ctories
Ġ" ",
F ail
Ġb ad
re direct
Ġmatch ing
al k
ĠOption al
Ad min
: '
Ġcall s
comple te
Ġu til
ĠB y
Ġpa yload
Ġst orage
ĠQ gs
ur al
Ġcomple te
cli ck
fa iled
1 01
en ce
Ġse lected
M IN
Ġreg ion
Ġwe re
da ys
ĠM ode
inter net
Ġg yp
Ġinst alled
in f
ĠV ariable
č ĊĠĠĠĠĠĠĠĠĠĠĠĠĠĠĠĠĠĠĠ
Ġconn ect
g b
ser ve
Ġme ans
Ġver ify
mo ves
Ġtime stamp
__ .__
Ġraise d
we ights
Ġc ell
Ġindi ces
~~~~ ~~~~
ge ther
ex pect
Ġfol der
clu ding
LI ST
cl ar
Ġh and
g p
Ġk ind
S L
bo ot
Ġwe ights
ĠM y
S ec
cul ate
In formation
Pro xy
ou gh
I AL
fl ush
S ign
us ing
E xt
HT ML
Ġ1 3
Ġx range
sup ported
LO G
Y PE
ĠU p
td c
Ċ ĊĠĠĠĠĠĠĠĠĠĠĠĠĠĠĠĠĠĠĠ
Ġen um
Attribute Checker
Ġper son
Ġsign ature
log y
is ted
argument s
. )
Ġ ĊĠĠĠĠĠĠĠ
T IME
G E
F N
re v
H ost
W ri
Ġexception s
cur rency
or ary
_ %
I SE
distribu tion
Ġsup p
F tdc
Ġw rapper
Ġis sue
w ner
Ġchild ren
p ted
D U
state s
b al
Ġper mission
out file
S V
P ass
Ġan s
} \
ker nel
pi pe
f abric
)) .
u it
n b
ro uter
ĠCol umn
cry pt
app ly
2 02
di c
Ġ //
Ġm any
Lay er
ĠI O
ext ract
h ello
Ġin ternal
99 99
Ġ{} )
ĠOTH ER
ti st
d r
ĠN ode
Default Deleter
ar ted
y g
v id
K et
t l
Ġst ats
a ctor
Ġprovi der
Ġf ont
ĠF ield
ĠI MP
:` .
Ġexp licit
re pe
w rapper
d l
g ithub
x n
Ġc pu
rap pe
W S
Boolean Field
be gin
as sign
App lication
at tach
Ġ' {
Ġd st
orig inal
ĠRe g
f mt
Ġbo olean
fa cts
Ġsa fe
Ġ 64
medi ate
ĠLO G
Ġi prot
Ġc li
task s
Ġcollection s
ĠS IGN
fer red
S p
ĠL IC
F low
Pl ugin
Ġpri mary
ro ad
up load
R ule
y es
P S
v is
s heet
ĠE N
Ġpre v
Un it
UB LE
Ġre quires
li ty
b ig
Ġlo ader
V ICE
sq rt
ti ties
En um
Ġ ))
Re ference
Ġbe low
chedule r
mp y
de tails
ĠB o
on ce
Ġas sign
k ind
in x
.. /
f inal
cho ice
s ock
g ame
r q
ĠC O
F E
ĊĠĠĠĠĠĠĠĠĠĠĠĠĠĠĠĠĠĠĠĠĠĠĠĠĠĠĠĠĠĠĠĠĠĠĠĠĠĠĠĠ Ġ
( ',
Re gex
OL D
s ur
() ]
c v
Ġ uri
() ):
F IL
res sed
Ġbe havi
ĠLIC ENSE
Ġker nel
p ure
C opy
Ġlo wer
- >
d st
Ġin cluded
' d
": "
OP T
Ġde pendencies
ter m
Ġa void
M D
Ġpro b
ad o
) (
Ġal pha
po ch
Ġun til
fici ent
lin ux
F loat
Ġp lot
ĠL IMIT
Ġst ill
pl an
à ¥
Met adata
la ck
M ask
Ġsh util
host s
Ġper form
Ġi dentifier
par k
Co mm
"" ,
get text
S C
package s
sy mbol
'] ))
To ol
S o
ex ternal
Ġpro blem
ann er
Ġal ias
Ġre gex
Ġstate ment
metri c
Ġop enerp
s n
di date
(? :
i um
Ġsupport s
W ORD
ed ge
Ġt ab
(' .
se ed
LI ED
Ġs parse
ĠD AM
ho ur
app s
be fore
Random Variable
qu ot
ĠĠĠĠĠĠĠĠ ĠĠĠĠĠĠ
s ync
unk nown
4 04
reg istry
Ġtrace back
per iod
FI X
z en
k ip
O ff
D C
co s
Ġ1 000
du ction
Ġp ipe
Ar gument
row ser
port s
Ġth ose
cess ary
si m
+ "
u dio
un ic
Ġle ast
HE AD
Ġ6 0
Ġ< <
data set
time Error
in ner
resh ape
Ġsh ell
Ġat temp
on y
w isted
Ġn d
Ġen abled
s lice
Ġ jo
Ġcorrespon ding
| '
ĠString IO
S cript
ist ri
di us
Ġp lay
sign ature
([ "
Ġdown load
Ġv ol
is sue
Ġ5 0
ĠD RAW
ĠBO X
Ġs uite
': '
Ġ[ -
ĠS h
ca ched
Ġb ranch
me th
ET E
tp g
ar r
ce ive
f name
Ġd river
comple x
RE QU
Ġman ager
re w
ĠO N
Ġs ig
un its
Ġin s
Ġconst ants
ation Error
Ċĉĉĉĉ ĉĉ
plugin s
ĠD I
Ġf etch
Set tings
Ġs cal
red uce
RE E
Ġsy mbol
ex er
Ġsource s
trans late
ĠDRAW INGS
i ti
Se arch
1 000
AT TR
B ar
a mp
Ġe dit
02 4
} '.
me m
DE BUG
Ġm aster
ĠD is
LE D
ue st
ĠIMP LIED
HER E
g a
Ġs q
L S
ĠL og
l on
i ed
Ġco mb
un pack
te ct
4 00
L EN
Ġre set
co okie
S pec
56 7
Ġd uring
Ġ" {
ĠH e
par tition
Ġwri tten
it ation
Ġbu cket
Ġas ync
Ġno te
F lag
w ik
Ġ' )
/ {
Ġval s
Ġop tim
Ġp ut
Ġf ix
p x
sub net
fail ure
par ameter
Ġt ar
Ġoper ations
ul ation
li te
update d
p ush
xx xx
coun ter
is tered
Loc al
Ġs l
Ġexec ute
B B
Ġtest ing
Ġre cur
0000 0
ĠG e
OR Y
Ġexp r
R en
in v
bu iltin
call s
STR ING
in ary
scri be
f time
I Z
Ch annel
exten sions
g ation
Ġy ear
ar m
ĠR E
i dentifier
ĠN et
Ġs ide
ĠS peci
en ch
t ar
Ġdirect ly
Ġset attr
F R
ut ron
ateg y
P rint
Ġde n
Ġu uid
CO MM
At tributes
di ms
si red
Ġd ay
AG ES
ad ing
ĠS QL
Ġbe gin
h ass
te ration
Ġmer ge
D ATE
sume r
De lete
len dar
con dition
sg i
Ġs core
ER T
Ġb ind
I VE
ĠB UT
Ġwe ight
C ore
Ġon ce
in voice
Ġde ri
IB UT
R ou
W E
: ``
sc reen
un i
Ġse q
SS L
istri bu
uplic ate
ac ti
ĠW indows
environ ment
Ġwork s
Ġsub ject
all back
cor ding
Ġe tc
: "
i dent
Ġ" #
vi sit
ir d
ĠC om
CT ION
Ġtime s
Er r
Re cord
ul ate
app en
Ġc lear
V ID
Ġn ative
ĠO ther
') ]
RO OT
Ġe p
M AP
ĠV er
Ġaction s
Se lect
aris on
Ġp r
HO ST
Ġ2 55
w arnings
Ġt ake
Po ol
ĠD oc
Lo ader
re quen
as ure
ĠT emplate
Ġversion s
er ies
Ġd ump
ili ties
Ġde leted
sl ug
str ings
m c
en u
pro j
} ".
ac c
ĠLIMIT ED
i mpl
ex clude
s r
Ġma k
pen dent
Ġv ector
Ġexten sions
Ġ{} ,
se ss
Ġal iases
C re
M ake
per son
d raw
set default
C F
O B
Ġst ored
per i
wri ter
Ġdef inition
ĊĠĠĠĠĠĠĠĠ ĊĠĠĠ
Ġco okie
ĠC ode
Ġpk g
C UM
ä »
ĠIn dex
st udent
Ġ_ ,
Sto re
re ader
Ġ2 4
r up
de tail
see k
lo cale
Ġde cor
ss h
se lected
s cheme
fi gs
Ġ---- ---
ĠS y
Ġsub class
Ġa wait
Ġin sert
av ing
greg ate
Ġw ell
Ġ' "
Ġstruct ure
Un less
Ġign ored
Ġbe st
element s
Ġbut ton
', ),
ta x
ĠC ourse
Ġcomm it
2 34
Ġass ume
File s
Ġext ract
Ġter min
control ler
r aries
modi fied
assi fier
Ġf it
ĠP re
Ġcurrent ly
tran sport
or iz
) ?
Ġlist s
Ġtemp file
J ECT
ff ect
Ġadd r
d uration
Ġf ill
sh ared
Y ou
Ġ1 7
Ġcon dition
const ants
Ġcase s
l ab
rid ge
Ġal gorithm
Doc ument
} .
z Ket
ler t
V AR
CONF IG
h istory
By tes
get Logger
ã Ĥ
ĠRe ad
ab sent
Ġpro per
Ġc types
Ġreg ular
Ġnumber s
A UTH
ur ity
i dentity
A b
Ġs w
ex pi
handler s
Re move
reate r
u ses
di stance
Ġ ĊĠĠĠ
se lection
"} ),
Ġm ight
Be gin
ar ds
Ġb asis
con v
exp ression
VAL ID
t wo
se ries
ĠLI ABILITY
fi es
ar ange
den ce
p df
qui v
b its
bu s
ĠG roup
ĠN e
distribu tions
ar Down
ma g
RE G
L IB
ck s
Di alog
Ġ ----------------------------------------------------------------
Ġlo ss
AN S
che my
vi de
Po sition
s hould
Ġdef ine
mer ge
Ġh ome
or ds
const raint
an ization
e m
ĠD jango
ok ies
vel y
99 9
DE F
Cur rent
R el
sh ell
h idden
q ty
ĊĠĠĠĠĠĠĠĠĠĠĠĠĠĠĠĠĠĠĠĠĠĠĠĠĠĠĠĠĠĠĠĠĠĠĠĠĠĠĠĠ ĠĠ
p ub
f req
Ġprovi de
s age
bu ilder
v ol
Ġt r
po wer
i an
yn ch
pri ate
s witch
Ð °
gle xt
road cast
as y
Ġ2 5
il ing
P h
Ġblock s
O bj
Ġapp end
N um
g is
Ġimple ment
RE AD
di gest
Ġst at
ĠM odule
O ver
get attr
A g
velo per
Ġb asic
ĠEx ample
## #
ĠDO UBLE
r m
b eta
Ġvi sit
Ġ4 2
F oo
Ġs cheme
Config uration
Ġbo x
re lation
J o
ã ĥ
per mission
ac cept
================================ ================================
Ġmax imum
li er
ĠS U
A F
ti d
pre v
ĠRe served
i ted
Ġap pe
Ġo wn
Ġre main
in te
T C
Ġsh ared
re es
e k
Ġis n
M y
de pendencies
Ġk now
YR IGHT
d types
Ġz one
ri s
run ning
Ġw arning
ct ure
ĠThe se
Ġdest ination
B ad
Ġpri vate
__ ":
: ])
at um
c mp
o ted
ĠW H
In itial
pro gress
oper ation
Pro file
Ġencode d
ĠO UT
Ġg lob
Ġs napshot
Ã ©
Access or
al ign
i max
D D
top ic
M T
AR K
ĠTH IS
brow ser
back up
LO C
n ail
m iddleware
in der
19 2
O O
a ys
Ġho ok
Ġex clude
G ra
Ġdel ta
S P
re ason
N ext
t od
Ġre cords
s uite
======== ====
ls o
Ġo wner
compile r
ĠT e
ong o
ro zen
it le
function s
iter ator
H ttp
d p
sub process
R Y
5 00
Ġne cessary
comp are
PR ESS
ĠX XX
OR E
a i
pre di
Ġv irtual
re vision
Ġtrans form
Ġmon th
ĠS E
Ġthread ing
d ns
C RE
e gg
ĠS ource
CON T
Ġup load
ex e
ces ses
Ġ ?
Ð ¾
ab ilities
return s
Ġun known
R ow
st ub
h i
de rer
de lay
**************** ****************
p to
ĠCo mmand
Ġdep th
comp at
umb nail
Ġb its
ĠMode l
Ġt z
po sed
BA SE
Se quence
Ġappro priate
Ġconst raint
M is
* (
Des cription
') [
ns ors
ut c
Ġex act
ful ly
L A
L exer
Ġre quested
Ġsy mpy
c ard
t b
ĠQ u
Ġs pa
Ġs amples
de ps
Ġautomatic ally
MA IN
Ġok ay
Ġre lation
Ġ1 9
ĠRe move
a cl
Ġpart ner
Ġex pi
page s
j or
P ol
li sten
te ction
Ġp ur
la ces
3 00
ro me
an e
Name s
Ġlo cale
Ġ( -
d ummy
ĠS imple
server s
Ġde scriptor
[: ]
Ġ lineno
sub ject
template s
ĠCOP YRIGHT
ĠT ensor
W h
ati bility
eff ect
04 3
Ġf i
Pro duct
g ui
ĠAr gument
ix el
Ġb ot
t n
Ġi o
se l
m as
Ġin cluding
V ar
ste ps
LO W
Ġcer tificate
Ġme dia
co ver
f ol
CH AR
e g
On ly
exec utable
d uc
Ġde precated
e ver
i i
Ġan aly
c pp
s in
Un known
Ġno va
Ġcon trib
and s
u do
s orted
== =
c ut
Ġcheck s
able s
Ġh elper
ed s
ĠR ights
ĠIO Error
W eb
Ġpick le
ĠQt Gui
Re ader
IT S
Ġpro p
Ġwor ds
run ner
ans wer
Ġimage s
Ġde pendency
qu are
clo sed
Ġ 80
H andle
v t
) ')
S R
Ġresource s
trans action
si z
bo sity
Ġo uch
Auth or
service s
Ġset s
exist ing
Ġbehavi or
Ġd raw
liter als
' %
Ġex ternal
ir c
N t
Ġchar set
=" %
ĠN ULL
y aml
fix ed
Ġact ually
Ġy et
local host
Fe ature
te am
Ġco ordin
> ')
ĠOn ly
k t
IC AL
ra m
Par ameters
M enu
Ġd rop
ty le
ĠC lo
Ġor g
Ġa mount
no tes
" })
r ing
ra ce
table s
Ġfail ure
pa y
instance s
p red
Ġh appen
dis able
ON T
} /
set Up
fi xture
o ols
ust ome
aa aa
ĠWe b
v n
pl t
W e
Un able
ĠThe re
Param s
Ġtrans action
Ac count
Ġcode cs
la tions
CO DE
EN CE
Ġs lice
; ':
Ġma il
gra d
" },
1 10
Ġsome thing
code s
fir m
pol y
N ING
Ġrepresent ation
ĠIn itial
is dir
age d
Ġ201 2
ynch ron
set ting
Ġn ested
Ġdi stance
=[ ],
ĠC F
Ġch ain
Ġend point
ĠW HERE
Ġ* ',
Ġk nown
ast ype
Ġmodi fied
char set
Oper ation
is ode
ve c
ĠI mage
m ultiple
C an
Ġim g
g u
di spatch
ri ve
:` ~
Ġb oto
requen cy
Ġpar sing
ĠEx amples
ĊĠĠĠĠĠĠĠĠĠĠĠĠĠĠĠĠĠĠĠĠĠĠĠĠĠĠĠĠĠĠĠĠĠĠĠĠĠĠĠĠ ĠĠĠĠĠĠĠ
per missions
ĠA nd
de leted
coun try
ĠRun timeError
k it
l n
ce l
Ġg rid
fi ers
Ġde le
>> >
PRO C
Ġa st
is instance
å ı
Ġitera ble
ĠPar se
ale nt
Ġ# :
k s
f lavor
sis tent
sub class
L Y
Ġf ig
e lem
A V
st ock
PI PE
L ast
di men
ci rc
Ġtrain ing
1 12
ge titem
(" -
'] "}),
DI RECT
Ġ" )
speci fic
pro b
E P
ue ss
p lain
T op
n ative
Ġde cimal
Ġc la
ul ator
Ġ( _
Ġf d
or ies
| \
Ġcomple x
(_ ("
abs olute
Ġpackage s
Ġ mp
U se
Ġi den
ĠA lso
Ġiter ator
b ed
ĠL E
ci pi
o auth
Ġallow s
Ġm d
R I
al th
UN D
Ġl on
e ded
con tains
Ġg it
valid ation
Ġbu ilt
j ava
Pass word
ĠUn icode
"" ")
ip s
L IN
Ġrepresent ing
T F
Ġ ~
p layer
ĠD ate
Ġs sl
si tions
AA AA
); \
g i
S peci
Ġ1 8
ra ction
cipi ent
D river
ut down
Ġen viron
or n
ĠUp date
ĊĠĠĠĠĠĠĠĠĠĠĠĠĠĠĠĠĠĠĠĠĠĠĠĠĠĠĠĠĠĠĠĠĠĠĠĠĠĠĠĠ ĠĠĠĠ
h n
il la
T A
'[ ?
Ġro und
Ġagain st
Ġco re
Ġ201 3
De f
M sg
L INE
se par
( ':
q s
D IS
g yp
Ġmig rations
Ġt akes
ap t
ĠHttp Response
ĠAn y
ba z
ĠDE FAULT
ĠS ystem
re lative
IL LIC
quiv alent
YR ILLIC
pa city
Ġe lem
for med
S U
IC T
Ġro uter
ab stract
place holder
Lo ad
ec ted
Ġstri p
Ġfile names
Ġun its
str ftime
Ġor d
S uite
ĠĠĠĠĠĠĠĠĠĠĠĠĠĠĠĠĠĠĠĠĠĠĠĠĠĠĠĠĠĠĠĠ ĠĠĠĠĠĠĠĠĠĠĠĠĠĠĠĠĠĠĠĠĠĠĠĠĠĠĠĠĠĠĠĠ
C ho
c itation
Ġt yp
Ġsum mary
Ar gs
si an
t t
W idth
/ ')
ĠRa ises
ĠO ut
Ġlink s
vari ance
Ġa tom
com ments
te ps
I ST
p ad
quen ces
as n
"] :
Ġc at
Di rectory
ns ure
Ġgo ogle
version s
Ġcre dentials
te ri
ci p
and roid
ĠC YRILLIC
Ġdimen sion
N ormal
state ment
J SON
> ,
RO L
Ġhost name
Ġper iod
Ġ( )
ĠD B
Ġcer t
sh are
Ġinter val
pack et
Text Field
Element s
'] ",
H ello
Ġs witch
e Error
h igh
Wri ter
ĠB E
ĠL oc
tri es
B C
ĠT rans
ime r
di an
Ġme nu
= ["
h r
Ġin side
Ġp adding
res sions
Ġed ge
Ġs ci
Ġc v
v ance
ation al
lo cate
iz ard
sc an
alle l
he el
Ġm aterial
Ð µ
x F
ĠM eta
ĠB SD
Ġs aved
Ġ' =',
is file
St op
H A
I mport
Ġs ur
e di
Ġh ass
Ġauth entication
Node s
T e
Ġsy ntax
Ġsub net
bl ue
STAT US
peri ment
/ \
Ġd ot
ock er
r v
cl one
crement al
Ġqu ote
to gether
iz ers
Ġn orm
Ġf ixed
Ġh ex
ĊĊ ĉĉ
) ")
format s
ra in
w x
channel s
Ġc y
Ġma de
s al
Ġc ached
st it
Ġorig in
/ *
T G
({ "
member s
Ġ4 0
co st
Ġit self
process ing
Ġl ang
Ke ys
d k
Ġpair s
ĊĠĠĠĠĠĠĠĠĠĠĠĠĠĠĠĠĠĠĠĠĠĠĠĠĠĠĠĠĠĠĠĠĠĠĠĠĠĠĠĠ ĠĠĠĠĠ
ustome r
ĠDe cimal
Ġtuple s
Ġse ed
S UB
en e
es ser
PRE FIX
pre vious
z A
loc ator
de cimal
do ctype
Ġsk learn
Ġcall ing
Ġarch ive
r as
Con st
H as
Ġstate s
Ġd s
Ġcomp iler
Ġimple mented
lo or
ul k
Ġf low
Ġmetri c
l v
Time out
Ar g
l b
Ġre pe
n ested
Ġq s
ĠIn valid
U I
Ġserial ized
F lags
Exten sion
Serial ize
Ġa ut
Ġans wer
!! !!
Ġde sired
N E
N C
25 2
Ġse curity
ĠCON F
) +
Ġd at
la zy
ag tail
Off set
ys ql
h ref
la imer
ĠL esser
ax es
ti t
arch ive
Ro ot
c ancel
read line
St orage
di sc
device s
Ġvalid ation
(' _
c n
Ġs imp
me s
+ _
U rl
man ifest
w eek
Ġ qual
Ġinter pre
) **
ĠB e
String IO
Ġcre ating
Ġs creen
e mbed
d m
script s
ĠMe ssage
ĠKey word
L ock
op tim
Ġfa ctory
con ver
IBUT ORS
Bu ilder
Ġ' *
Ex ist
ĠOS Error
Ġe mbed
li ve
M atrix
pre cation
ĠMo ved
IN CLUDING
comp ress
' ',
Ġwork ing
Ġdisc laimer
Ġexec ution
find all
m icro
Ġp d
p ending
D atum
ra c
de g
process or
in line
ĠE VENT
pro blem
g lob
V olume
Ġlo w
Ġf uture
AT OR
Ġ' \\
b undle
M ark
om ial
config ure
et ail
Ġst udent
an tity
En able
g pu
istribu tion
h int
me sh
ge om
Ġg l
ĠCONTR IBUTORS
Ġpar tition
Ġins pect
in herit
G B
Ġre c
-------------------------------- ----------------
comp atible
iz es
tab stop
orig in
Ø §
T P
ĠTest s
Ġpage s
initial izer
Ġpro c
Ð ¸
ri ft
re cords
Ġr xn
a fe
n or
Ġin ner
c nt
w sgi
ĠIP v
o tes
Ġlo aded
Re action
Ġse c
act ual
ĠB Y
ĠBu ild
W ork
de cor
Ġbu g
end point
D AT
Ġ' '.
ĠC all
W R
c wd
wh en
Ġtask s
li es
ĠAuth or
T emp
Co uld
j e
L D
Ġraise s
Ġfa ctor
: ',
re quires
'] ]
86 13
Ġcomp are
allow ed
201 0
RO UP
Ġexp and
Ġbu ilder
Ġ2 3
ĠT Type
Ġno thing
ench mark
Value s
ĠIn ter
m ut
m u
Ġat tach
Ġcomp ile
ur ations
1 32
r u
in c
co mb
ĠV i
as set
clu sive
P ost
################ ########
ĠE lement
Ġp ad
16 8
ĠPO INTER
ĠA C
Ġprovi des
Ġar rays
ag ic
char s
]) .
50 9
meta class
ĠLE FT
Result s
C lean
ph y
b lob
I p
C al
yg on
Do es
æ ľ
M AN
En abled
Ġn or
F ind
Loc ation
A IL
ce iver
pro g
ĠI s
DES CRIPT
> %
work er
Co mple
ĠS ome
Ġdi rectories
w b
vi sible
Ġm s
f amily
oc ab
M iddleware
S tyle
UT F
"] ["
C annot
SER VER
con sole
request s
] '
Ġstart ing
ate r
Ġ1 024
vi e
R ate
ut ors
Ġindi cate
ĠC H
mo x
std in
change s
tic ular
$ (
ĠOther wise
Ġag ent
ĠS ign
Ġac ti
Ġr ate
ref resh
B inary
si b
US G
un ity
at trib
{ "
ĠAuth ors
p end
pi x
sub scription
ĠCon tent
Ġdb se
c tive
m g
FI EL
A v
Pa rent
p ur
ĠO per
Reaction Datum
Ġle ss
Ġcorrect ly
Ġdb instance
ĠCh ar
Ġm ime
Ġprocess ing
se lector
Pro vider
speci al
ab ly
pl us
de precated
ĠF ind
UR CE
ly ing
M on
par tial
11 1
Ġd types
Ġp ush
line ar
n umeric
P hy
En coder
iter al
Ġ' +
Ġp i
6 00
ĊĠĠĠĠĠĠĠĠĠĠĠĠĠĠĠĠĠĠĠĠĠĠĠĠĠĠĠĠĠĠĠĠĠĠĠĠĠĠĠĠĠĠĠĠĠĠĠĠ ĠĠĠĠĠĠĠĠĠĠĠĠĠĠĠĠ
U ID
2 04
/ "
for ward
ST ATE
567 89
key word
ten ce
pri ority
J ob
Ġv im
Ġpro gress
.* ?
Ġsy mbols
Ex it
S chema
Ġwor ld
Ġconver ted
ch ase
' m
Ġdetermin e
di ag
Ġter m
12 0
Ġgra dient
wh ile
plot lib
al ity
Re mote
Ġt s
Ġd ns
Ġtable s
list s
8 00
Ġbo ok
vo ke
ge o
Ċĉ ĠĠĠ
(_ ('
host Ftdc
ct xt
pre pare
u da
Ġ qui
loy ee
Ġ' [
al g
al chemy
OF P
il ar
r strip
ĠDAM AGES
v c
an a
(" --
ho use
D V
match es
check er
ma chine
De cimal
W OR
ac ter
Ġf name
To Many
pro ps
par sed
Ġformat s
read only
Ġ## #
sc roll
M ain
(" <
ER P
metri cs
d ash
no tification
Ġbu iltin
ĠE vent
roll ment
no va
Ġte arDown
gener ic
Ġle g
) }
Ġpar ticular
Ġs ock
33 33
B E
' (
Ġse en
project s
wh ich
ĠU N
Ġse ries
REQU EST
Ġapp lied
Fail ure
: ",
str ument
10 4
Ġcom ments
ri gin
base d
are a
CO MP
Ġpri or
i ent
- +
re cur
S end
at t
wik i
pro tected
g mail
Ġnd array
ĠF unction
Ġvar s
== '
Ġtri gger
Con n
ep copy
st andard
" %
: -
ĠC lient
us ters
æ ĺ
ate way
no tify
pro gram
R et
uff le
Ġa round
ĠCom ment
ĠS up
w atch
Ġre v
ĠRe distributions
S how
ntax Error
Ġb l
ĠWh y
' +
Ġfl at
Get TypeId
Ge ometry
ĠA le
pre cision
} '
Ġw rong
sv n
ĠPRO VID
g z
et c
el ls
Ġsupp lied
ra ble
pol l
Ġma chine
B asic
fore ign
or ph
ĠR o
V M
ec tive
count s
sk b
IL D
or ing
ĠC an
b g
e v
Ġview s
MPL ATE
Trace Source
pa gation
co gn
Ġread only
Gener ate
x i
Ġcop ies
ce d
h and
Ġen gine
di ffe
Ġtime delta
r x
XX XX
di rection
Re p
Ġclo sed
Ġ3 7
mo re
ĠM ulti
'[? ]',
dest ination
I V
r d
ra tio
CL ASS
2 14
Ġvi sibility
T itle
12 5
Ġo uter
Ġ5 00
pre dict
trans lation
trace back
Ġs n
t ol
im ate
a ut
Ġ" ")
Ġ201 5
ĊĠĠĠĠĠĠĠĠĠĠĠĠĠĠĠĠĠĠĠĠĠĠĠĠĠĠĠĠĠĠĠĠĠĠĠĠĠĠĠĠ ĠĠĠĠĠĠ
Ġback up
P U
Ġc m
ĊĊ ĊĊ
Con tains
Ġac c
tra ct
P ASS
it al
Con s
ĠP ath
co very
uc ce
Ġr ank
l st
Ġscal ar
Ġfail s
ET HER
jo bs
P ower
], [
ä º
ĠIn put
Ġh our
assertIs Instance
Ġ201 4
Ġ2 2
ed ges
N ECT
ĠIN CLUDING
N on
de li
ar ticle
ĠO bject
ari o
ist ic
Ġli sten
Trans form
Query set
Ġre ferences
cre dentials
ten ded
ĠNOT E
K EN
Ġne gative
Ġconnection s
T ri
" ',
Ġf rappe
Po sitive
Ġinclude s
ĠAnsible Module
Ġgo od
Ġno tification
z illa
ĠT able
con tinue
S um
li ct
P ACK
thread s
MO DE
Ex pected
201 3
Ġcal cul
T AG
FF FF
xt ures
Change d
ph ase
le v
86 15
Ġre vision
Ġc lf
struct ure
. +
IS ING
C ourse
Ġdis abled
P os
Ġcon struct
res olve
11 11
A li
F ont
rup t
ĠS P
AT ED
ĠW rite
x E
o ok
t v
D el
IG IT
10 9
66 66
Ġal ign
cer tificate
ĠSH ALL
sl ash
Ġre ader
Ġany thing
Comp onent
ĠL e
Bit Field
c ar
Ġup per
Ġtemplate s
b est
dis abled
Option al
C UR
DEL ETE
fa st
Ġi con
ĠS ER
sta ff
gate way
ĠI tem
Me mber
di gits
[ \
ĠLI ABLE
G lobal
Ġsci py
L C
an ded
Ġupdate s
ĠL ine
Ġl arge
Ġan not
scal ar
TY P
E mail
f un
Ġd ue
Ġ Ð
Ġde scri
IC ES
VAL UE
Ġb rowser
ĠAR ISING
? ',
per cent
ĠCo mm
av es
ĠE ach
ĠPROVID ED
ch or
w ant
ĠR IGHT
ĠN ew
Ġ layout
Ġcoun ter
ĠT ORT
Ġhost s
') ))
([ ^
Ġwri ter
ĠWH ETHER
Ġe c
} "
ol ved
Ġdist utils
ĠCONTR ACT
jo urnal
z ed
assertAll Equal
Ġt b
Re direct
Queryset Equal
p m
Ġp ower
T uple
Ġt od
ig ration
Ġne ver
F S
Y Y
ier arch
Ġ/ >
ĠS ta
De bug
o logy
Ġreg istry
Un icode
fl at
AM P
Ġf o
ro ken
Ġ ).
sy ntax
Ġ å
W ISE
q a
Ġurl parse
ale s
Reg ister
Ġmodi fication
sc a
g f
Ġle x
Ġf mt
Ġ3 1
de pendent
s cores
assert QuerysetEqual
ag raph
ĠN E
B ACK
col lect
con nected
Ġre duce
Ġt ran
Ġbase string
Ġc s
er gy
11 9
col ors
AP P
ame ra
OR IZ
Ġs teps
NU M
ĠD ATA
ri ca
order ing
Ġ201 0
ou se
Ġderi ved
ĠPro cess
ist o
COL OR
ĠJ o
g d
Ġtime zone
un der
Child ren
AN CE
Ġcho ice
Ġli ter
Ġcre ation
At tr
time zone
ĠSer ver
F irst
Ġp ixel
Ġadd resses
get value
Ġpre cision
ToMany Field
map per
re try
1 99
ING LE
mon itor
ve y
ta ched
gn ore
Rou te
un link
Ġcomp atibility
agic Mock
er red
> ",
Ġ ^
ĠEX PRESS
ten d
N A
' ll
ti le
ĠM ark
on ical
v lan
ach ine
CE PT
N N
Ġn one
ci al
S c
Ġac cording
Ġthread s
B R
d raft
Ġmetri cs
IB LE
Ġh y
sc all
ĠLo ad
s ame
Ġg r
Does Not
a vi
m ble
di alog
EN SM
Ġas k
an is
S ingle
ighb or
ENSM USG
ce pted
proto buf
Ġ ĊĠĠĠĠĠĠĠĠĠĠĠ
cate gor
fol low
"" ",
Ġfl ask
Ġ" +
s chedule
in ventory
Ġre stri
12 4
ĠU P
) -
PO INT
file path
L im
ĠNet work
Ar ticle
h ort
C ustom
u fe
ĠIn teger
in ux
th reshold
sh ake
as cript
"" )
a ws
ĠRes ponse
Ġcomp any
ly ph
ĠAle xa
PE CI
dest roy
Sh ape
Ġwork er
ĠC A
sm all
ĠOut put
D atabase
Ġ" :
tr l
Ġc pp
i ble
A gg
Ġto ols
G o
Ġex amples
Ġhand ling
den se
tri p
ĠE xt
Ġdevice s
s lots
PAR AM
ĠO ver
assertAll Close
ti re
Ġindi c
12 9
Ġreg istered
im al
g res
Ġse lection
Ġpre tty
Ġre try
lo gs
Al most
] \
spec s
us ted
sub mit
is ual
ir q
N ET
B ig
201 4
Do uble
Ġb ig
Ġd ummy
sertion Error
ENT RY
Ġexec utable
Ġ( [
ic ally
Ġcl one
ĠPro ject
x is
pro cessed
} ',
Ġ2 8
fin i
ro ker
ser v
ĠD IGIT
Serial izer
v l
ti ves
En tity
() ;
Field s
Ġp ip
Con vert
copy right
T L
ĠO ne
assi stant
HEAD ER
N V
ifi cation
p or
av ascript
T otal
Ġpo sitive
Ċ ĊĊĠĠĠĠĠĠĠ
ĠC ur
10 5
IN PUT
pair s
Ġcomponent s
Ġ'/ '
g amma
SE QU
ex act
Ġw agtail
ĠR FC
di f
Almost Equal
3 77
ĠF IX
ĠOTHER WISE
N AM
IS O
ĠRes ource
j ar
Ġde lay
Ġ" (
R ET
CO UN
n x
Per son
Ġst ride
de le
Ġp s
_ {
Ġ2 9
Q gs
k a
Ġt m
Ġe quivalent
to o
Ġco ef
ĠN ow
10 6
bal ance
gra mm
web site
sen sitive
11 7
ST ART
CI I
Ġdimen sions
oriz ont
e poch
Ġtest dir
Ġ" [
Ġ" {{
ne gative
AC C
Ġd uration
list dir
Ġse p
mo us
Ġfa st
DO MAIN
pipe line
S UP
Ġun signed
Lo op
eval uate
C opyright
') ]],
+ ',
RE D
M ESS
Ġpro duce
Ġt wisted
a gs
Ġc sv
ĠT EST
A pi
with out
Ġsepar ate
dered Dict
ighb ors
Ġcon si
DoesNot Exist
li d
ĠS UP
Ġ lin
a ther
LO AD
d ag
ag ing
ĠCON T
201 2
late st
a lf
Item s
Ñ Ĥ
time r
u fa
get ter
Ġpar tial
assertNot Equal
rom ium
en g
ac ters
Ro le
add resses
Lib rary
Ġsm all
Ext ra
Ġattemp t
V S
Ġc c
dimen sion
Y P
00 2
TE MPLATE
Ġc b
p atterns
inter faces
Ġver y
D T
n ed
REE K
age s
L ANG
N ote
Ġun less
Ġversion added
Run ner
Ġwho se
ĠDi ct
Ġf s
sy mbols
back ground
Ġsq rt
CUM ENT
end or
i ke
clar ation
Re port
ED I
PRO TO
ver sed
ap s
gra tion
def inition
Ġpri ority
F unc
ID ENT
S im
Ġappe ar
Mo di
pect r
x A
Ac tive
time delta
O M
Ġro ute
si cal
mi ted
Ġstri ct
ze ug
ĠW hether
Ġmin imum
Ġtop ic
wit ter
G C
Ġt urn
LOC AL
Ġqu ot
Com ment
De serialize
gra dient
13 9
@ @
l r
ĠH ow
k zeug
Ver ify
ĠP l
13 7
ĠC or
__ ',
o om
tera ctive
SG I
c id
en sure
Control ler
12 2
Ġh ard
ĠH AS
wh ite
key words
Ġres olve
Ġro t
u ous
edit or
ag gregate
O FF
lic a
u om
all close
Lo okup
par ty
ĠE nsure
11 6
ĠV M
Ġconfig ured
rite ri
[ (
ĠD on
n l
Ġdecor ator
con figs
') (
Ġarg parse
U tils
W ait
ro py
require ments
at al
CT YPE
] ["
ĉĉ ĉĉ
ĠDoc ument
I dentifier
Ġget s
helper s
bo unded
cli p
velo p
orizont al
ma y
Tag List
ĠS TR
Ġerr no
10 7
Ġmember s
Ġm ar
Ġ( ?
Ġe tree
ĠA UTH
ble ms
V al
(' .')
cre te
Ġse cret
y y
w all
Ġfor ward
TEST S
ab e
ĠG REEK
late x
Ġme m
t m
B X
Ġdi gits
+_ +_
tro ls
F l
DESCRIPT OR
Ġdi rection
13 4
In dent
ĠPo int
Ġproduct s
ul a
ĠD IS
train ing
fail Unless
* \
ĠSer vice
Ð ½
repe ated
Ġquery set
R out
Ġ' :
ven io
li ces
Gener ator
ĠFIX ME
' <
iv es
t ure
Ġs ync
ĠS UB
Ġdi rs
ony mous
M C
Ġd ays
duc er
Ġrepo sitory
cy cle
ES P
Ġcontrol ler
ail ability
sp h
wor ld
update s
Con ver
ok ed
L iteral
= {}
ĠJ zKet
Many ToManyField
s peed
m ime
Ġcan didate
ĠArgument s
Ġ ur
En coding
tri gger
lo ur
Ġ2 56
Ġdi spatch
ĠVer ify
11 4
rec v
P DF
UR I
ĠTest Case
ch er
network s
S pace
split lines
Ġth ings
s f
Ġme t
UR N
ĠT ry
pro mpt
. "),
um an
ĠOpen ERP
Ġin d
ref s
# ----------------------------------------------------------------
inst alled
Fe ed
Ġgra d
ge ometry
clean up
Ġexplicit ly
18 0
Ġread ing
mo ving
Ġnormal ize
Ġc p
li cies
Ġph ase
al len
From String
entic ate
Ġ' &
M apping
Ġca use
Sec urity
f ragment
Ġu ti
Ġpipe line
11 5
Ġkey words
can vas
and as
Ġproper ly
mig rations
Ġpro cessed
Dis play
Ġa ble
TER N
T ab
ar row
U sage
* ',
([ (
C D
st ime
k o
U ST
li text
S ome
P P
assertIs None
ĠH OLD
Ġmak es
Do main
Ġsh ift
ĠSt art
Ġp ie
" +
Ġre ally
ĠP ost
Ġman ifest
Se lection
Ġ$ (
out ube
an cer
res olver
Mis sing
ĠS hould
mul ation
normal ize
ph er
siz es
ti ces
iv ar
run time
10 24
real m
ĠEN D
A I
g reen
pre sen
File Name
Ġ à¤
der s
5 12
Ġc ateg
S kip
Ġcheck er
unct ools
Ġor dered
el y
ĠCh ange
En v
na cl
DE X
con tain
Ġp layer
Ġ{ %
Ġvari ous
p in
ti tions
Ñ Ģ
ĠP lease
m gr
To String
w alk
ĠF irst
10 2
Ġ201 1
Ġtrans lation
AR CH
Ġe ffect
d ynamic
back ends
: [
b um
Col lection
tic s
ON G
unct uation
Format ter
Ġt ransport
float ing
loy ment
Set ting
ĠF ake
de c
it ude
pre view
ĠH O
= ('
fa ct
comp o
____ ____
se ctions
Ġun pack
Ag ent
assi fication
m ust
Ġadd ing
co okies
Ġsh a
Ġorder ing
Ġth ree
Ġmap per
ost on
Ġline ar
ĠS SL
Ġ201 6
S tep
CL I
AD DR
h ave
cate n
201 5
ph inx
g ot
Ġgener ic
Co okie
con tact
S cope
ĠQ U
Ġindi vid
Ġ'. '
AR D
sec ure
ot ype
Ġ= ================================================================
Ġ}} "
d h
_ ):
G ROUP
Ġax es
('/ ')
In clude
ĠDefault s
b ra
Ġ2 1
Ġra ther
Address Value
pro duce
L a
IN ST
on d
T ransport
ou ter
Ġmatch ed
ĠIN C
ee p
C ategory
2 15
ĠP Y
Comm on
)) ))
ĊĠĠĠĠĠĠĠĠĠĠĠĠ ĊĠĠĠĠĠĠĠĠĠĠĠ
B L
st ar
Ġpo inter
F older
C er
Al low
sm art
Ġnull able
AM PL
u an
Ġ""" )
Ġrun s
Ġw on
Ġe di
ĠĠĠĠĠĠĠĠĠĠĠĠĠĠĠĠ ĠĠ
k b
(' #
S IG
n r
pe er
un ter
st rap
Ġone s
ver tical
Ġformat ted
A K
s ol
C md
Ġ2 6
Ġrun ner
b and
e cho
i j
Ġ" $
un CP
collection s
Ġs paces
DO CUMENT
p anel
ing er
x ed
ĠIndex Error
co d
Ġdef ines
Clean up
dict s
TYP ES
Ġ question
z ure
+ \
" />
reg ular
er ature
G rid
Ġ4 04
F D
č Ċĉĉ
assert AlmostEqual
ĠCon vert
11 8
Ġcheck ing
Ġconfig ure
com ing
ĠEx p
b ut
Ġw ifi
bo b
Ġpredi ctions
the me
LIN K
S ITE
Ġco st
lim iter
5 35
Imple mentation
hook s
Ġcheck ed
query set
c ross
Ġde g
Tra ck
g ri
Time r
ro u
err no
ir ror
cur acy
Ġexec uted
st and
re et
Ġtemp orary
is ten
op le
I t
W IN
P open
Ġas signed
o res
ari ty
AS K
ORIZ ONT
pay ment
ĠF e
cry ption
tit ude
h d
Ġar r
log ical
.... ....
Ġf ragment
12 6
ĠGener ate
cat alog
Ġ1 28
Oper ator
Ġde al
Ra w
ĠL a
Ex ists
n c
mt ree
200 6
in ing
Ġp atterns
Ġremain ing
00 5
sp litext
Ġp ub
Ġiter tools
ini tions
x s
Ġth row
00 4
Per mission
Ġpre vent
CT hostFtdc
re cted
a ce
/ (
ç ļ
Ġw arn
co ord
Name d
ORIZONT AL
25 0
Ġglobal s
_ ='
Ġh istory
connection s
U CT
& #
s lot
li ties
Ġs can
2 32
Ġclo ud
ĠL ib
D est
fin ite
x path
la ve
sph inx
co ef
00 6
re store
Ġ ri
Ġse quences
An aly
ĠSt op
m ultip
ra dius
Ġren dered
UN K
Ġback ground
G S
location s
Ġp rom
ĠF oo
Ġcal ler
Ġ5 1
Ġmat plotlib
ĠPer son
Pro ber
Re quired
Ġeval u
co ords
Ġpri ce
Ġbet ter
a o
ĠI F
Ġserver s
. '),
Ġen tire
3 86
st or
er ge
Ġz er
Ġretri eve
D L
PECI AL
j i
y e
SER T
ro les
ĠU sed
T x
ĠT ag
reg istration
ĠD es
Rout ing
Ġnew line
Ġre cent
Ġc ross
m all
Ġ' ':
ra se
NO DE
D etail
čĊ čĊč
LE X
St ub
ĠB LOCK
w imax
P e
AD ATA
Ġwrap ped
Agg reg
Ġre tain
mp ath
z a
ct l
AT CH
10 8
entic ated
e le
Ġlet ter
/ .
N ULL
ra ck
//////////////////////////////// ////////////////////////////////
Ġ2 7
Ġlon ger
ĠC lass
h w
Ġb al
pick le
la h
x B
Ġa verage
pe t
ul ated
ĠCONT ROL
Ġte am
AS H
Ġf rozen
rep ly
Ġdi d
cal c
ĊĠĠĠĠĠĠĠĠĠĠĠĠĠĠĠĠĠĠĠĠĠĠĠĠĠĠĠĠĠĠĠĠĠĠĠĠĠĠĠĠĠĠĠĠĠĠĠĠ ĠĠĠ
çļ Ħ
ip her
C ell
') ):
man agement
un til
Ġs peed
ĠCon nection
sen der
ur ses
Ġg tk
File name
Ġv s
> =
Ġg ive
par ame
t w
ĠAC UTE
' \\
on al
Ġc enter
Ġma g
201 1
Ġg u
au dio
ry pto
ĠM ARK
ĠQu ery
Ġdi m
Ġse gment
tod ay
Ġevery thing
13 6
Ġwh itespace
Ġa m
Object Base
ĠClo ud
an o
ĠNo tes
Ġe v
ra ps
ite rable
il li
auth ors
") ),
Ġno qa
Ġreturn ing
c art
In stall
Ġ5 9
V T
'), ('
U FF
e mit
b ias
d y
A SE
x C
ĠHOLD ERS
re name
Ġn stime
encode d
G en
Sy mbol
oper ations
R PC
Valid ationError
B ody
ac quire
MA IL
S ample
Ġ3 4
= \"
ĊĠĠĠĠĠĠĠĠĠĠĠĠĠĠĠĠĠĠĠĠĠĠĠĠĠĠĠĠĠĠĠĠĠĠĠĠĠĠĠĠĠĠĠĠĠĠĠĠ Ġ
m time
Ġt run
i mation
ca lendar
write Field
Le ft
"> <
Ġ urls
3 84
Ġ' (
Ġi r
h ide
fin ish
E VENT
] {
X Y
lex ible
å Ĳ
B ind
S N
Ġin ventory
Ġb eta
ES IS
M ULT
ĠF orm
R C
U an
Ġed ges
tr unc
lif y
h ar
Ġper mitted
Ġindivid ual
ser vation
Ġmeta var
mk dir
5 01
ĠU SA
ĠS Cons
Ġcon side
per m
pro x
acti vate
F B
Ġne utron
G P
ĠB oston
Inter val
ĠM ax
S ave
Ġcur r
u ab
ĠS kip
ci pe
tes ter
or dered
AMPL ES
nd array
MET HO
Ġst arted
ac tivity
i form
Ġcount s
u ac
ir th
ĠV ERT
ENT IAL
Ġdocument s
BU ILD
F ake
ol ds
15 0
R ect
V EN
P lease
00 7
ĠC al
St ats
w indows
ĠMan agement
Ġcon v
Ġ tenant
00 3
En vironment
Ġ 84
Ġinitial ize
Ġd om
ĠVERT ICAL
ed x
2 000
t or
ĠSt ream
MESS AGE
re a
cry pted
clean ed
2 35
e ps
po w
RE F
DE D
ĠAr ticle
č ĊĠĠĠĠĠĠĠĠĠĠĠĠĠĠĠĠĠĠĠĠĠĠĠ
spa m
ti ck
B Y
vis or
Ġin herit
Ġc wd
Ġf id
Ġ4 00
Ġchunk s
Ġst uff
de epcopy
AR GET
ĠĠĠĠĠĠĠĠĠĠĠĠĠĠĠĠ Ġ
call able
Ġhandler s
Ġm uch
Ċĉ Ċ
S uccess
u db
go od
ĠS tr
th rough
bot tom
25 4
ĠGener ic
Ġin line
In te
App end
th umbnail
13 5
x D
MET ADATA
Ġ200 6
/ <
à¤ ¾
([ ('
re at
ur tle
Ġen ough
n dim
st ics
len code
ĠP ass
De coder
en tities
Ġh int
lo pen
ĊĊ ĊĠ
//// //
r st
. ],
m q
Ġsql alchemy
Ġd ynamic
Ġhash lib
ms vs
200 1
` :
set Text
32 6
Ġreplace ment
Ġf ire
set ter
u ad
make dirs
Ġdi ag
serial izer
Ġdep ends
ĠA b
Ġ{} ".
Ġ200 4
ĠComp ute
(' ')
cer ts
Regex p
p adding
se g
ĠS p
st one
ĠI mp
Ġlib raries
igh ted
Ġchar s
CRE ATE
Ġmig ration
int ain
ad ow
account s
x fe
Ġmon itor
d x
rec tive
Ġ 77
f fic
Ġth ing
ĠH E
å ħ
C or
Ð¾ Ð
pt s
ç Ķ
z on
g test
Ġinter faces
a ir
ĠC ustom
De fini
AB C
G T
g w
rand int
ĠOption s
in el
Ġl at
serial ized
d v
b lack
è ¯
ir t
Ġfloat ing
Ù Ħ
range s
In ternal
WOR K
Lim it
al lation
li de
ĊĊ ĠĠ
# ////////////////////////////////////////////////////////////////
M achine
Ġe ar
OUT PUT
Callback Impl
P art
Ġcontrib utors
Ġmaterial s
hour s
s aved
repo sitory
Ac cept
' >
Ġbound ary
3 34
#//////////////////////////////////////////////////////////////// //////
comp iled
čĊ ĠĠĠĠ
: ],
th rift
Ġto k
C URE
M ultiple
Ġcomp at
pix el
He ight
Ġserial ize
Ar ch
Ġimp orted
q t
Ġ\ "
li ck
ener gy
frame s
n i
Ġpol y
Back end
Ġ{ {
ĠM atrix
lib s
uc c
ma jor
I LE
ï ¼
Ġexp ressions
EN S
Ġpro mpt
Ab stract
ro l
ad ditional
SH A
mig rate
Const raint
velop ment
ĠC l
ĠL anguage
ĠP ol
En ter
Ġrepresent s
P A
s qu
TH ON
global s
Ñ ģ
B LOCK
j pg
â Ģ
ig en
S ame
] "
H ook
Ġs cen
89 7
Ġn x
Ġin voice
Ġco ver
fl atten
16 0
initial ize
ANS IBLE
Ġcreate s
- #
L anguage
Ġi teration
ĠT ask
ĠDe lete
() ``
Ġbo ot
I mp
Ġservice s
cla use
Ġcla use
Ġi dentity
Ġm u
ĠValid ationError
wh itespace
3 01
Cl assifier
Ġge o
Field Descriptor
ĠSt ate
open stack
GG ER
con struct
s ale
Pro perties
St ation
ĠCH AR
se ct
Ġtra iling
G TH
Ġ\ \
m id
En gine
ul ly
Ġn b
13 8
ri end
Sh ell
% %
Ġk lass
che mas
3 04
me rica
at ar
a verage
allen ge
ĠP ri
Ġcon nected
ĠĠĠĠĠĠĠĠĠĠĠĠĠĠĠĠ ĠĠĠ
Ġf lavor
con sumer
isto gram
ang ing
Ġsim ilar
Ġ !
comp arison
Pro to
C AP
Multi cast
3 02
Ġback wards
j ected
h at
Set up
pe ak
64 7
USE D
Ġcon sole
at forms
Ex pr
Ġm m
ch dir
Comp ute
N a
in ator
Ġm ut
xy z
Ġim mediate
Ġf type
b all
And Return
di git
Ġu i
de pendency
CL A
dentifi ers
re view
Ġc atch
D istribution
00 9
Ġper f
widget s
D ec
s ince
Ġj s
P ick
at ype
ex amples
str ategy
Positive IntegerField
Ċ ĊĠĠĠĠĠĠĠĠĠ
Ġ( @
(' ',
av g
ĠS ession
Ġs ol
De p
Pack age
T er
C CE
al iases
Ġcon version
Packet Metadata
Ġgener al
se en
[ ]
č ĊĠĠĠĠĠ
FIEL D
Lo ss
AR B
ĠCon trol
Ġ{} ),
st age
u dd
tmp dir
se titem
un used
si tes
Ġwe ek
sup p
orn ado
Ġparent s
ph p
check s
Ġre ct
est imator
Me mory
S parse
us sian
Conn ect
O ther
Ġpa y
Object Factory
Ġs sh
) |
> `
Û Į
rid den
Valid ator
ierarch y
Ġ( <
Ġcy cle
m ysql
No tify
Ġprob ably
W indows
---- --
Ġbe come
_ '
ĠB lock
Ġconside red
u tions
ed u
ĠS INGLE
S K
vi le
ator y
Ġro ut
Se ction
Ġver bosity
00 8
Ġsh are
200 9
b order
I teration
u ca
Ġshow Indent
fin ished
V ICES
Ġcal culate
X ml
H elp
Z ip
n inja
Node Container
CA CHE
Ġch r
Ġal tern
[' _
Z ero
E Y
Ġp lan
------------ -
Ġ3 5
Ġapp s
L isten
} ),
Ġe mit
ĠH andle
Ġopt parse
ĠD atabase
AR E
F in
co v
Bo ok
Ġload ing
» å
E E
Ġ ;
x code
Ġ Ø
ĠDI RECT
con s
ne g
Ġp or
port al
Un expected
re size
def s
N D
\\ \\
"] =
P FN
n ers
et s
Ġreplace d
obj s
, %
Ġ' ?
sp i
Ġman ual
T ABLE
ĠH ORIZONTAL
ĠAr ray
h ard
IN IT
Ġm x
ĠIN TER
ĠSe arch
22 4
Ġs chedule
Ġ0 0
bit rary
V irtual
ume ration
in ct
] (
at temp
č ĊĠĠĠĠĠĠĠĠ
t abs
ro ke
à¥ į
Ġs olution
S W
si lon
ĠR et
as array
Ġp lease
ACT ER
E d
Ġh idden
Ġst ati
ur ther
repe at
er kzeug
UU ID
Ġcon ven
vari ant
COUN T
ĠPO ST
0 33
Ġ gs
en s
Ġth reshold
CLA IM
ĠT oken
de mo
fi xtures
ae mon
+ )
= "",
ĠOr deredDict
ł ģ
Ġcol lect
#### #
ĠW ith
Ġse nsor
ĠPer mission
Ġ3 6
Bo unded
cre ation
Attribute Accessor
FA IL
Ġliter al
load ing
g id
pro d
Ġex cluded
ĠC a
Ġal t
Ġsuccess fully
Ġunder lying
Ġreg ard
assertNot In
p w
FT DC
([ ],
dir ty
vance d
() ).
ĠC ho
TO KEN
b ib
=' /
Ġ 99
ler ance
OPT IONS
Ġhttp lib
k i
ker as
Ġse g
de coder
Name space
t cp
MO D
us sion
Code c
DO WN
ĠS PECIAL
ST IT
o v
Ġedit or
Ad ditional
ri cal
Ġpro blems
Ġl d
Ġse ver
her ited
uni form
sh utdown
OR M
al gorithm
se mble
f w
Ġrun time
Ġe asy
volume s
Ġlate st
Ġexact ly
A merica
B atch
p us
Ġb undle
10 3
Ġhome assistant
} {
quot a
N ull
Ġcol s
VER T
Ġwho le
Ġ æ
4 01
ass oci
work flow
ĠB ad
book s
parent s
Ġhandle d
NU MB
Sp lit
ĠMoved Attribute
Ġy aml
Ġdiffe rence
fi dence
2 19
Ġdoc test
Ġp red
Ġfa ce
={ "
ma zon
Ġport s
s cheduler
ĠGe o
Ġcop ied
track er
Ġper cent
Ġthe me
Lo gin
1 77
D b
ĠIn te
P K
h ot
W in
yn omial
un ion
Ġsl ug
CCE ED
Ġ\ '
Ġ ĊĠĠĠĠĠĠĠĠĠĠĠĠĠĠĠ
STR UCT
Ġ""" <
STIT UTE
cp us
Ġm ultip
EN ABLE
TIME OUT
Ġt w
Ġ| =
re main
co eff
Ġsen der
attach ment
categor ies
for mer
W or
RE AM
Ġ[ {
format ter
dep ends
Wifi Mac
le af
f tp
title s
Ġvi sible
EX AMPLES
map s
Ġoccur red
I I
mpl ing
je ction
st arted
Ġimport s
Ġ ser
Ġin correct
check sum
Ġspeci fication
Con f
Ġrelation ship
Ġg reater
code cs
B ound
fi re
CHE CK
Ġ200 9
wri tten
liter al
L n
fig ure
; '
Ġest imator
ĠBo ok
an ity
se mb
IM P
DOCUMENT ATION
an te
Ġn umeric
modi fy
in y
un expected
I con
ĠSU CCEED
se nsor
stub s
v v
Ġb el
en ded
p d
ĊĠĠĠĠĠĠĠĠĠĠĠĠĠĠĠĠĠĠĠĠĠĠĠĠĠĠĠĠĠĠĠĠĠĠĠĠĠĠĠĠĠĠĠĠĠĠĠĠ ĠĠ
Ġplugin s
__ ))
po sitive
Ġcon tact
ç łģ
Ġcli ck
Ġ" *
Ġover write
Ġp lain
S ite
r fc
AN Y
O IN
Ġfl ush
Ġas set
Ġ[ %
NECT ION
D A
ti fied
1 64
Ġcoordin ates
pre ad
Ġr pc
ĠV AL
publish ed
3 14
__ _
ĠDIS CLAIM
ĠG E
Ġre d
Cur sor
PFN GL
? \
ti p
k ill
mig ration
< <
Ġ* =
ime n
IB ILITY
ĠC IR
W A
Ġ' {}
Ġab stract
can didate
" ')
Ġstd in
f k
ANG E
Ù Ī
Ġ1 99
2 74
ost ream
Ġ[ {'
Ġdir name
--- +
ch art
SEQU ENTIAL
A IN
ĠU RI
Ġcoun try
ĠL IGHT
Ġcomp atible
icro soft
ĠE OF
Ġtrans late
Test ing
ash es
Ġimple ments
PASS WORD
Ġmap s
Ġinst anti
Ġ`` __
Ġfa cts
F ITS
Ġr ng
x FF
Ġcheck sum
cel ls
F ull
r ator
cla red
Ġen tities
[ [
F i
Ġbot tom
TEXT NS
or se
å Ī
Ġe mp
man age
Cho ice
ĠIS O
13 0
AB IC
Ġclean up
CON TEXT
P N
co in
a lect
Ġ---- -
' ve
Ġ è
Ġre store
Ġt ax
Ċĉĉ Ċĉ
shape s
ĠAs sertionError
org anization
ten v
Ġdi v
ĠT R
ĠMe thod
Ġcode c
æ Ī
az ure
Ġ200 8
Ġdisplay ed
Ġfail ures
in ted
C ancel
0000 000
Ġr hs
di ctionary
Ġl ar
Ġg test
Clo ud
'] ):
a j
quen tial
Exp ression
ĠU TF
imat ors
ise d
(' ^
f rappe
th at
Ġ ls
ĠP rint
ĠLO SS
ĠSUB STITUTE
Ġpe er
do es
Ġca st
: ")
Ġso up
Ġ/ ></
ĠCON SEQUENTIAL
04 4
Ġ ç
Ġo l
co ordin
w t
Ġsetup tools
tr al
pre tty
te ctor
pectr um
R ight
Ġde li
Parse Error
! ")
O DE
Ġindicate s
LEN GTH
Ġre ceive
u ro
wrap ped
Comp iler
Ġcomp arison
Ġrecur sive
ĠTensor Flow
TraceSource Accessor
ESP ACE
Ġ9 0
ĠG iven
W ITH
bind ing
ĠMA X
ti f
Ġf unctools
ĊĠĠĠĠĠĠĠĠĠĠĠĠĠĠĠĠĠĠĠĠĠĠĠĠĠĠĠĠĠĠĠĠĠĠĠĠĠĠĠĠĠĠĠĠĠĠĠĠ ĠĠĠĠĠĠĠ
us pend
Ġserial izer
iz ing
DU LE
Ġdoc s
Ġare a
Ġret val
============ =
** *
u v
C ap
C y
g re
Ġfin ished
IG ENCE
} :
qual ity
Ġb order
Ġres pon
Ġshow n
NO WN
Vi deo
U sed
ĠIN DIRECT
E st
cl usters
WAR NING
Ġre produce
ĠG OO
Ġstart s
ĠAR ABIC
Ġspecify ing
ect ors
mm utable
GL IGENCE
Ġsub classes
a ff
Ġb lob
Ġresult ing
Pro gram
N ONE
Ġle ading
ter ms
h f
Ġmark up
NUMB ER
mi tive
H t
Ġpy game
B RE
ĠA uto
diffe rence
ĠP BX
ro per
Ġm k
i sis
ti cket
Ġg ran
comm unic
func s
Data Frame
ĠPRO FITS
i os
h g
as te
"] [
09 6
Ġqu eries
Ġ# @
Ġdoc string
ĠCon struct
Ren der
m ongo
pre c
Ġg ame
Ġf req
æ ķ
Ġpre ce
al ways
ffe red
11 3
re ceived
Ġimp licit
po six
Ġcol ors
al ler
ci pher
St andard
re load
file obj
Ġcomp uted
Ġref resh
Ġn args
Ġarg v
d ating
ĠOr der
a lert
r mtree
Ġexten ded
Ġ" @
Ġchannel s
k es
names paces
Ġweb page
C M
Ġd uplicate
U ns
2 18
Ġt p
ĠNE GLIGENCE
se gment
ub b
L P
gramm ing
d ll
he b
201 6
metri cal
PO S
s b
Ġ= >
Ġ er
nor mpath
T ARGET
let ter
Con sole
Data set
Char acters
mo o
ĠS olution
Ġpre pare
code c
sd k
Sta tic
ĠW SGI
=' '):
i den
Ġwe ak
QU AL
Ġf ew
man ual
sw ap
= ""
Ġcon d
G EN
x p
add on
gra ms
CallbackImpl Base
Sy ntaxError
S ee
Ġshould n
Ġindic ating
Error s
j ac
200 8
ĠK EY
p ull
A ctions
Ġc irc
to k
UP T
Ġtrans fer
__( *
F UN
Ġ= ====
Ġc ancel
sib ly
( ("
Ġspeci fies
ĠA RE
la ys
so up
U ES
ĠO p
Ġresponse s
ne ed
ĠThe y
D jango
Ġan gle
lock ed
ĠĠĠĠĠĠĠĠĠĠĠĠĠĠĠĠ ĠĠĠĠ
15 9
Ġle arning
Ġsimp ly
Ġfunction ality
A U
ar ing
qu ent
Get Value
2 17
ĠS ince
th eta
ĠCur rent
ph one
annot ation
c atch
Ġs cores
R UPT
Ġqu otes
Initial ize
In it
en coder
Ġs lot
ĊĠĠĠĠĠĠĠĠĠĠĠĠĠĠĠĠĠĠĠĠĠĠĠĠĠĠĠĠĠĠĠĠĠĠĠĠĠĠĠĠĠĠĠĠĠĠĠĠ ĠĠĠĠ
local s
Ġrep ly
Ġeval uate
si one
P bb
ri ces
date s
ĠCOP Y
E MPL
ISE D
ç »
ĠW ork
Ġra dius
Ġden se
Ġme sh
cre dit
ĠL ay
p time
limit s
ati s
str ong
Ġac ross
ä¸ Ģ
al loc
tz info
up grade
LO B
b ulk
Ġfl atten
precation Warning
ĠN S
b ile
ĠAt tributes
() ])
=_ ("
an iti
ann ed
comm unity
ĠF ilter
F lexible
R UN
re ceive
Re ceived
Ġ layers
Ġta ken
Ġmin utes
S IGN
200 5
gr al
Ġ* /\
De code
sub set
ad s
case s
Ġ3 3
ub a
ti ally
OT E
2 64
00000000 00000000
M AC
ĠB oolean
sig ma
Ġp ending
it ch
EN C
exec ution
Gener ic
ER Y
con cat
] }
Ġcoef ficient
assertIs Not
ss ue
Tag Buffer
00 02
; "
de cl
Ġc t
inger print
fi d
B IN
Ġsepar ator
ĠS ec
ĠEx ec
Ġs leep
Serialize ToString
Ġfollow ed
IM AGE
B AD
T ags
include s
ĠTh en
ten tial
Ġt xt
Ġh aving
Ġinteger s
ten cy
/ (?
ser ted
J zKet
Ġcon sume
per f
Ċ ĊĠĠĠĠĠĠĠĠĠĠĠĠĠĠĠĠĠĠĠĠĠĠĠ
V C
Ġe s
Ġy es
m x
get cwd
Ġ{ \
-------- --
01 234
ti vely
Ġe poch
et ree
len ium
s yn
match ing
n at
SO CK
ĠCon text
) """
FIL ES
g uid
ç ±
add Widget
Ġpass ing
ri eve
al let
Ġcode s
Ġlocal s
RE C
s chemas
Ġt ail
ST REAM
22 2
Ġg c
Ġ'% (
200 7
-+ -+
ca de
pa tial
ro uting
g c
u z
I gnore
ĠSe lect
Ali gn
ĠM ust
Ġ{} '.
R U
en cy
ĠCHAR ACTER
k l
unc p
xxxx xxxx
Ġos v
rigin al
pa red
Ġen ter
Ġ" (('
in ations
Ġsuccess ful
Ġf r
> [
F ixed
ĠAd min
RES ULT
ch a
Ġg uess
(" .
ĠA DV
Ġfrozen set
01 0
HO ME
ra d
3 32
Ġ ------------------------------------------------
b ridge
= \
Ġe f
Ġag gregate
xe f
pur chase
ĠB US
assert Contains
pol ation
A ER
', )
! "
are st
d rive
x ec
Ġat ol
ep isode
Ġmer ged
Ġst age
hy per
con firm
b et
Flexible ForeignKey
L ong
Ġab sent
ten tion
j avascript
=" /
Tag Iterator
INT EG
Con dition
Ġmac ro
Ġs yn
Ġto l
U til
Ġun used
WN ER
Ġconstraint s
xb f
Ġf allback
am ing
=' %
01 7
ĠR andom
ĠR ed
uc b
uf b
pa ren
ĠG ET
ESS ION
Ġfin ish
> ")
me asure
Cl uster
ls db
PROTO COL
Ġadd s
ine ss
ĠJ ava
a de
Ġs mal
Process ing
Ġc ar
EM ENT
Ġdi alog
Ġbase name
type def
As sign
INTEG ER
c lock
termin e
ĠE nd
Ġe as
Ġ3 00
Run ning
tist ics
Ġxml ns
Ġjo urnal
P op
ĠDe veloper
Ġbegin ning
trans fer
Ġlo gs
cod ings
ĠA CTION
mp o
Ġf amily
Ġ4 8
S creen
Ġla zy
n secs
Ġretri e
ĠPO SS
semb ly
ĉĉ ĉ
ORM AL
in ity
Re lease
Ġw atch
Ġf un
Ġdi sp
l arge
ĠE mpty
al ive
bound s
b tn
c xx
Ġman age
ti os
Re set
Ġ""" \
IN ESS
reate d
Ser ies
ld ap
Ġjo bs
ĠSTR ICT
Ġskip ped
s quare
ĠG a
s u
st mt
mar gin
P lay
vi des
J son
D raw
Ġre actor
F n
Ġnormal ized
Ġfig ure
cogn ized
b ri
Ġlog ic
bi an
CONT ENT
foo bar
he alth
leg al
up ported
ĠĠĠĠĠĠĠĠĠĠĠĠĠĠĠĠ ĠĠĠĠĠĠ
2 16
bo lic
Ġge om
ĠM ap
AER ESIS
M IS
Ġt mpl
sw ig
RET URN
IDENT AL
Ġc en
ĠDI AERESIS
f g
Ġout side
ĠW AY
read lines
ĠCOPY ING
En code
2 30
l and
Ġdo ing
token Queue
ĠADV ISED
IN VALID
fin ity
c lf
Ġcateg ories
Ġde tect
Ġar bitrary
Ġformat ter
As sert
Ġde c
ĠFor mat
v pn
un named
ĠE VEN
ix Vector
ĠDISCLAIM ED
../ ../
Ġ201 7
Ġcomple ted
provider s
ĠEn vironment
ĠSU CH
ĠINTER RUPT
ĠSER VICES
Ġtime r
ĠINC IDENTAL
rag ma
ci on
) ``
Ġ 74
C lear
[ %
lev ant
UU UU
Ġo auth
ĠPOSS IBILITY
parame tri
in crement
æĺ ¯
T S
TO OL
AD D
log o
r r
T CP
od v
Con stant
ĠHow ever
ĠSt andard
MS G
G A
Ġmask ed
dash board
C MD
n y
st an
da e
ĠBUS INESS
ty p
ĠC re
ro bot
mg mt
~~~~~~~~ ~~~~~~~~
M EDI
ub f
domain s
ST EM
. </
Ġse lector
Ġrequire ments
k g
ĠD ummy
ua f
ĠGOO DS
c as
WE VER
Ġs ile
Ġbase s
ĠR O
graph ic
b old
Ġar ticle
graph y
Ġ'$ (
Ġme asure
EMPL ARY
C AS
C trl
P r
\\ \
ĠR el
analy tic
l g
ĠDAM AGE
ĠS to
uc f
Ver tex
y outube
Ù ħ
Ġcon sumer
P H
W H
Ġh it
Ġco s
ĠSt atus
Ġget text
Ġal ph
ctype s
listen er
MP TY
Ġassign ment
ĠHO WEVER
2 39
ap er
ĠI nt
Ġfil tered
' /
cur r
ŀ ĭ
er ce
=[ ]
ĠAl low
Ġor m
ĠM atch
ĠTHE ORY
M igration
ĠCA USED
work ing
w izard
m aterial
ĠF L
Callback Base
support s
A ss
Ġp laces
xb d
ĠO P
l ar
Ġs in
define Dict
ĠINTERRUPT ION
Ġcon tin
ver bosity
Ġstate ments
Ġc ach
ĠEX EMPLARY
ĠPRO CURE
ĠPROCURE MENT
A X
si vely
sub s
Ġcer tain
file no
an cy
W ID
Ex ample
com men
Ġf urther
fo x
la unch
F LEX
s park
str uc
Ġvari ant
con ditions
Ch unk
Ġf requency
---- -
' ")
b ank
Ġpar allel
14 4
L ines
tin y
ynchron ous
str ptime
Op tim
OB JECT
predi ctions
ub c
M od
Ġx module
24 0
An y
N ixVector
Ġa ff
Ġl st
'), )",
ĠBy tes
3 74
Ġp ag
constraint s
Header s
v endor
P ublic
de t
ch rome
qu oted
Ġ* ,
pi e
bound ary
17 4
ifi er
LE FT
node type
separ ator
i di
ue b
Set s
En ergy
CLI ENT
Config ured
MB OL
ther net
FIL TER
ĠAdd ress
sc i
34 5
Z Z
de ri
Ġfile path
ar c
return code
n f
à¤ °
si c
se udo
Ġlocation s
: </
Ġpro duction
Des c
Ġb s
mis c
int o
_ [
Ġ" \\
3 15
p f
Ġ' '),
full name
recur sive
xb b
Ġmodi fiers
ĠT ABLE
OP EN
Ġtry ing
De ferred
PAR ATOR
Ġimmediate ly
A ck
04 8
Gra dient
1 0000
S cale
t ls
37 5
CA DE
Ġ Ċ
ĠO K
uc d
Ġd ry
Ġcur rency
v ocab
ĠP ack
Pro p
C B
x be
V ari
P attern
-------- -
ua e
i q
2 77
res ume
Ġ"{ \
Ġsub scription
Ġm icro
fail ures
2 66
document ation
In sert
ca y
ĠAc count
te ll
ext ras
CUM FLEX
METHO D
Ġsever al
Ġi de
Ġdi dn
") [
lap sed
p ip
EN V
O pt
cre ator
Ġus ually
$ ')
Ġw heel
rest ype
d ocker
mm ar
22 22
Ġmap ped
Ġgo ing
ff t
Ġcheck point
Ġ} ),
Ġf ully
leg acy
MO DULE
s nap
Ġ[ ("
Ġsub stit
0 39
E val
è ¡
2 36
Ġgran ted
open config
me ter
module store
xx x
Sign ature
Ġbuild ing
Ġprom ote
Ġdi gest
Ġdefault dict
pl ural
uit able
Ġcoordin ate
Ġhandle s
Ġlook ing
wa ve
arg types
Ġsub set
6 55
ĊĠĠĠĠĠĠĠĠĠĠĠĠĠĠĠĠĠĠĠĠĠĠĠĠĠĠĠĠĠĠĠĠĠĠĠĠĠĠĠĠĠĠĠĠĠĠĠĠ ĠĠĠĠĠ
Ġcom ma
Ġbl ue
ud f
t un
ĠA ction
2 33
Ġin cre
Ġfile system
14 0
Ġinitial ized
Sh ort
ĠCIR CUMFLEX
Ġman agement
Ġtoken Types
re cipient
for um
Ġ7 0
ĠS Y
An sible
ti fact
Ġco okies
ve red
T X
ACT ION
add Callback
Ġstr ategy
ĠR en
ren ces
config urations
wh at
Ġframe work
čĊ čĊ
Ġw indows
Ġth umbnail
Ġp t
(" #
ne eds
ĠIn stance
13 01
ha red
Ġplace holder
"> </
ĠData Frame
ĠM et
Object Name
Ġ ke
and box
Di stance
v ault
18 4
ĠM agicMock
ĠSy mbol
is co
ĠB asic
In st
a w
speci fied
Ġretri es
Ġover ridden
cs rf
E MAIL
r gb
ua a
ĠP L
Ġde tail
ub d
ar rays
lin alg
x ab
Ġst ub
Re al
ç± »å
cs r
Ġat tached
emp loyee
x ac
Ġs alt
Ġc ells
AM L
sub scribe
check point
Ġs s
ĠLoc al
u ck
ĠD ist
ĠRe distribution
issue s
index es
xa a
CF G
Ġv lan
' (?
> ).
assert HTML
multi part
l strip
as c
ĠSt ash
) (\
m orph
T AB
ĠL inux
mark up
b gp
Ġdef er
U G
x ad
Ġzer os
Ġle ave
ue s
__ ),
Ġde ps
i prot
Ġc e
16 9
Ġread y
xe b
F ree
T lv
Ġ ì
Ġ[ #
ction aries
match ed
Ġgener ation
jo int
Ġnet loc
W ord
3 55
Ġt k
Ġd ag
lib raries
S ensor
Trans action
ĠM ay
ĠDO WN
ĠP a
Ġ linen
Ġsign als
S witch
ĠA WS
Ġg amma
Aggreg ate
R ST
ĠN on
02 0
fetch all
in o
gener ated
Group s
c ustomer
TEST FN
s uch
l c
lit tle
xa e
Ġt reated
P anel
LO GGER
SO URCE
di cate
Ġse ctions
assertHTML Equal
ĠPar ser
ä» £
I dentity
ch r
ĠM in
Ġs olver
/ ?
x m
ĠB it
Ad apter
Ġdebug ging
set attr
CC ESS
k ely
b re
te nsors
me t
Ġdistribu tions
Ġsend ing
ild card
Ġoper ators
spa wn
H H
at z
IN DEX
17 6
ĠS end
Ġcan vas
Ġ200 7
ha lf
an ted
un ce
* '
T LS
Point s
Ġac cepted
Attribute Error
8 22
ĠS phinx
Key Error
leg end
Ġget ting
18 5
Ġad dition
con sume
TH O
ĠD NS
Ġperform ance
Time stamp
ĠHe ader
iv y
ER USER
qui et
re ceiver
Ġe ps
ag ers
sym metrical
clu sion
S cal
Ġman ually
le c
"] ),
6 86
ab out
BU FF
ĠT arget
ĠB ack
IN SERT
Ġby groups
E scape
Ġr and
non zero
ĠP AR
Con struction
p list
Ġh old
Ġ' @
ĠG ra
Ġdef initions
å ®
ne utron
xf b
sv g
w as
Ġp g
EX EC
Event Impl
ç±»å ŀĭ
f ort
al tern
L ow
d de
e ager
Ġt y
Re served
Ġs ched
In cremental
te t
ch at
url parse
Ġcomp ression
č ĊĠ
M EM
an sion
Ġen coder
Ġc are
some thing
Ġdep ending
Ġp ull
Ġ 86
Up load
Ġinv oked
pe ction
plan ation
al ph
exp licit
In line
gg le
file names
æ ĸ
Ġcomp iled
!!!! !!!!
Ġtz info
ĠTh at
abstract method
cry pto
presen ted
Ġre cipient
ĠA P
LE MENT
Ġj inja
I RED
xb c
={ },
ar b
ut ation
Ġ""" ,
Ġsc ra
st s
Ġn ume
ĠP age
ĠIn fo
m and
Ġde coder
un g
ma v
So ftware
Ġpie ces
pon ent
kw ds
ĠF AIL
Ġhy per
l p
m n
[ ::
Ġx b
xf c
Auth entication
Bo ol
we ak
xc b
in cip
C LO
ĠL abel
16 5
Ð »
ĠP unctuation
Ġpro cesses
Ġl n
response s
Ġacti vation
ĠM O
ri l
CHE MA
+ =
Ġu gettext
Ġlog ged
de sk
U sing
Mo ve
Ġ ################################
builtin s
H ex
] ')
mark s
set ObjectName
ci o
lat in
expand tab
Ġw erkzeug
* ,
Ġp ys
UP DATE
p an
Method s
f type
WR ITE
_ :
assertIsNot None
Output Stream
Ġg ateway
Ġzip file
6 74
ad apter
ĠA TT
parametri ze
Pl atform
sis tency
ri ch
ub er
ACT IVE
mp a
co hort
] =
Ġiden tify
ti cks
Sum mary
ID D
g uest
ol ation
play list
r ho
Ġgover ned
Ġb us
Ġc ut
Ġ4 5
r ating
x df
17 2
E l
re served
ho od
Edit or
Ġwh ite
shift width
Ġlex er
Ġ ES
red s
VE L
min utes
Ġwork flow
i pt
mode s
df s
ent ropy
sc ene
roll back
Process or
IT EM
LO AT
Http Request
G di
pa per
ĠM ac
) ._
Ġp b
AT ER
Ġ3 8
STAT IC
å į
Ġto gether
ON LY
tes ted
Ġag greg
m ixed
13 3
ca pacity
sign als
Ġa lert
Ġsystem s
Ġbound s
DO M
Ġra tio
Listen er
CH O
analy sis
Ġc mp
ĠSE LECT
Ġ é
Ġcontain ed
Write Ln
b n
ĠĠĠĠĠĠĠĠĠĠĠĠĠĠĠĠ ĠĠĠĠĠ
C alled
ar ante
Ġi rq
). """
15 4
ti cip
th ree
d ry
Ġreal m
trans pose
S CRIPT
ĠAS CII
SER VICE
s ched
2 99
x ce
P cap
Ġa udio
log its
xc f
PROC ESS
Address Checker
Ġs ucce
ite cture
s rid
Byte TagList
x fa
Ġde tected
Create d
soft tabstop
rol led
(' ''
re start
Ġindex es
Ġop code
cid r
RO P
p db
sub type
Ġ 87
Ġsign ed
x sd
ĠW or
P ay
oo se
Ġte nsors
M ARK
Ph ase
` )
Ġ 88
)) ]
exten ded
QU E
SY MBOL
me sg
Ġb roken
Ġh ad
04 1
Ġli sted
ĠSt orage
A sc
M IB
Ġ% .
Ġun expected
f allback
xb a
Ġli ght
Ġ-- >
P i
Ġp db
mo use
$ {
le arning
process ors
number s
ard own
xd c
Ġ3 9
64 8
po ses
Ġscript s
DE VICE
30 9
Ġg ives
smart indent
Ġi te
ĠCreate s
Ġr tol
k y
n ume
ll ing
ĠQt Core
G CC
roper ly
sh op
du ces
M ar
Sub Element
Ġfa ct
, ,
Ġ5 12
ch no
Ġa u
qu antity
pa que
ĠGe ometry
Ġoverride s
g ge
b z
stru ctions
Ġst and
Ġper formed
. ':
Ġ" ".
Ġrestri ction
qu it
qu eries
Test Suite
caten ate
ĠJ OIN
Ġcat alog
. '''
DI FF
Exten sions
z oom
sv c
st ation
Ġag ree
ĠX code
w rong
Qt Gui
pri v
tc m
Create s
Line ar
Ġ"/ "
ĠAUTH ORS
or ical
IE W
es h
MET A
Ġitera tions
h u
Ġth ough
Ġre fer
Â ł
Ġ" }\
Ġare n
sub dir
Ġla unch
rec tives
sur vey
child Nodes
Ġs izes
Ġmag ic
20 5
20 8
ĊĠĠĠĠĠĠĠĠĠĠĠĠ ĊĠĠĠĠĠĠĠ
Ġlink ed
por ation
Ġp andas
ä»£ çłģ
al one
UN CTYPE
2 37
21 10
SUP PORT
ad a
16 6
a el
| |
Ġpro x
est imators
Inter rupt
EG IN
re moved
Key word
__ :
Ġ ----------------
bu fi
gen e
D en
xe a
4 32
velo pe
sq lite
chunk s
ati ves
V O
Ġmak ing
communic ate
/ ",
ĠU Int
non ce
FE AT
war m
h am
Ġb ias
Ġnode Name
dis connect
? ?
post gres
or ator
Ġpl atforms
abc def
Ġac tivity
201 7
2 84
Sup ported
_ =
Ġm i
Ġrequire ment
ĠT E
Ù ĩ
: ]:
d temp
Dis k
Ġweb site
Ġend orse
29 4
Ġpo six
ĠRes ult
p laces
ĠM IT
min ute
17 9
min imum
Defini tion
Ġin p
ĠQ ueue
Ġtar info
un defined
gener al
Wifi Mode
Reg ion
M I
REG EX
P lot
S mall
Ġp in
(' __
Ġn est
ĠAs sert
Ġr s
check ed
x db
Ch ain
14 9
ä¸ ª
el low
form set
Loc ator
OutputStream Wrapper
bo th
sk i
ĠSet s
Argument Parser
P ush
cap abilities
MS Build
Ġlook s
Ġc riteri
Ġoptim izer
it m
ur lencode
Ġin f
2 88
D AL
ri er
fi rew
20 7
x de
Di ff
Ġnames paces
Ge o
spa ces
} ",
ĠS im
01 4
12 1
Ġup grade
Re present
n m
Ġin tern
nb sp
D one
Ġmo unt
COMM AND
ĠATT R
oc us
PAT TERN
N ORMAL
Struct ure
HA VE
x ca
up led
é ĩ
uplic ates
d w
Binary Protocol
A UT
top ology
ff ers
pro duction
content types
utc now
P W
c ms
Ġv ec
Ġe ff
; ')
lic ations
b roadcast
B its
add ons
IN S
c df
Ġ'- '
Ġpro ps
P M
firew all
ou cher
Del ay
PRO JECT
Ċ ĊĠĠĠĠĠĠĠĠĠĠĠĠ
UR ES
19 6
dh cp
run s
Ġformat ting
( "")
; ',
16 7
Fe atures
to ur
Ġdict s
sh ard
in et
Ġ" ":
ĊĊ ĠĠĠĠ
DE P
Ġlanguage s
Ġm iddleware
ĊĊ ĠĠĠĠĠĠ
AMP LE
Ġsig ma
edi table
Ġf c
Ġre versed
15 7
dae mon
L AN
Ġassume d
> .
co verage
ĠA ss
Ġc ipher
Ġdate s
ch anis
bs ocket
14 8
assertRaises Regexp
l u
pre p
build s
Ġ$ {
is c
Ġ` ``
Ġwh y
rand n
Ġe t
sc en
u ght
test case
17 5
Ġite ritems
xa f
Ġ6 8
ĠStop Iteration
p at
H AND
CAS CADE
char acter
Ġhour s
R ed
ĠF a
19 4
assign ment
æ ī
inter cept
Ġreg ression
f rac
Ġsile nt
ĠURL s
Ġ4 4
Ġper m
NotFound Error
Ġ' :'
D N
ex periment
al i
34 4
Ġissue s
Ġrepe ated
S ync
xc d
bind ings
A fter
01 6
Ġ& &
/ $',
e ach
f m
Ġm id
mo vie
Ġprevious ly
ur lopen
ĠH ost
D K
64 4
Ġ-- -
comp ressed
GR AM
Ġhelper s
annot ate
Reg istry
Ġw s
Qt Core
ĠP lace
fo c
ĠO GR
19 8
ph rase
b irth
script ors
ph i
atom ic
b ing
b idden
b p
bot o
Max imum
! ')
ad just
Ġ> ::
Ġth ird
scall s
P layer
v r
Ġwait ing
T here
gen ce
S CHEMA
n av
for ma
v g
d mp
ET IME
2 25
Ġp print
SE D
ĠVi ew
3 99
re tries
a head
To One
ĊĠĠĠĠĠĠĠĠĠĠĠĠĠĠĠĠĠĠĠĠĠĠĠĠĠĠĠĠĠĠĠĠĠĠĠĠĠĠĠĠĠĠĠĠĠĠĠĠ ĠĠĠĠĠĠ
S w
Ġun defined
Ġch art
ĠRe ference
en c
col lector
go ing
Ġhigh er
Ġfi xture
5 74
roperly Configured
Ġst ock
ĠM on
Ġ4 7
ins pect
deg ree
de ad
Le ss
iver sal
BUFF ER
ĠAd ditional
a ux
t u
Ġdi git
------------ --
P F
ĠL ink
ry py
sid ual
M ob
si a
ub y
COMM ENT
ĠCF G
ĠSe quence
Ġlimit s
ĠP ort
ag greg
scri ber
aaaa aaaa
Ġb and
Ġdi alect
table name
ure ment
AA A
Ġhappen s
me try
ww n
Ġsh all
ĠDE BUG
Ġreg istration
sur face
: ')
(" [
pon en
Ġmodule store
36 8
('/ ',
Ġqu oted
DEF IN
circ le
ĠC er
ĠAc cess
Ġre start
in ters
Ġg data
ĠF rank
(" _
work ers
17 0
CP U
Ġimport ant
ĠOper ator
Or g
ĠSpeci fies
Ġ --------------------------------
ĠB ut
mask ed
ch n
am b
Ġco ord
xc c
Ġin iti
15 2
I ZE
R M
() .__
ĠU sage
Ġcomp ress
Ġqual ity
ĠFL AG
24 9
con c
valid ator
36 00
exten ds
UFF MAN
Man ifest
Extra ctor
ĠF l
ĠOver ride
Ġmar gin
A rea
a res
p le
ä ½
sc r
d up
} ]
ig no
Ġlog its
Ġep isode
M ore
ĠH UFFMAN
c ac
Ù Ĩ
]) [
Ġoccur s
par sing
dep loy
ACK ET
33 7
ĠS ave
Ġfull name
3 66
ta ke
min or
Ġform set
pa gin
D rop
de veloper
dia lect
RES P
ACC ESS
Ġma intain
Ġstati stics
Ġescape d
x da
â ĸ
F ragment
d uplicate
n ick
Ġ Ċĉ
IT ER
22 6
ĠTh read
B S
ip pet
20 6
S afe
real path
G IS
ĠCF UNCTYPE
Ġpixel s
Ġt or
con t
Ġinitial ization
ĠCor poration
Ġfile obj
I FI
Ġf rag
Ġv ectors
') ).
Ġl b
ĠRe quired
Ġlevel s
= ",
st ic
Ġconver ter
x dd
Ġto po
äº ¤
ne ighbors
Ġwidget s
P G
ue f
(' {
Attribute Construction
Met ric
AttributeConstruction List
ol den
man aged
{} '.
ak ing
2 86
j ump
x ee
Ġd aemon
Asc ii
Ġinitial izer
or a
f requency
ri t
ĠU UID
F etch
is ing
Ġb ra
dd t
WID TH
ĠF loat
h ist
fil tered
de serialize
Ġv tk
Ġno ise
boot strap
ĠMoved Module
Ġ================================================================= =============
Request Handler
Ġmean ing
re quested
SH AR
Ġsec ure
E nt
Ġf h
B D
6 54
ue d
Ġre presented
14 7
has attr
Ġacc um
C ERT
01 5
19 7
i face
Ġtermin al
Ġtod ay
), ('
ud c
i ms
Ġde limiter
P atch
22 0
17 8
Ġh ack
ĠExt ra
W W
Ġsm art
Ġb roadcast
Ġv ocab
22 9
H I
si mp
ase d
ra vel
Ġend s
Object s
04 0
By Name
regex p
de e
> """
Ġ[ ['
fe e
Ġdi ctionaries
36 0
.+ ?
Ġv e
ĠMy SQL
Ġconsi der
f rozen
Ġdecode d
Ġchar ge
Se q
C AT
Ġdistribu te
xf d
IGN ORE
ient ation
Ġpre serve
Se lector
! '
ĠN ON
ar tist
Ġc txt
handle d
) '),
cal ler
A xis
ĠG RA
uto ff
Ġframe s
) {
pro files
o bs
ap pro
64 9
Char s
< !
stream s
St at
Ġs uitable
Ġca lendar
re tri
ĠFrank lin
O UR
patch er
w ire
15 8
pa use
24 8
ĠLib rary
h dr
ro om
b box
ĠC opy
Ġre view
Ġp df
c annot
S cheduler
_ ('
IP V
: /
f rag
conver ter
Ġf ore
Ġos lo
ID E
PO INTER
Ġclo sing
Ġannot ation
s olver
Ġf all
CO M
remain ing
op enerp
head line
vi sibility
annot ations
Ġpol l
1234 56789
io dic
Sign al
Ġt ries
click ed
se quent
skip Unless
s ink
Ġ' |
ue e
Content Type
x block
Ġanaly sis
] -
f fi
ĠCON NECTION
UT C
f loor
ĠN a
Ġper mit
80 8
ĠCO MM
u lip
ĠFOR M
let te
or th
ĠM ain
top ics
mac ro
N EL
Ã ¡
20 9
et ag
ĠE num
li der
A ST
ĠP h
15 6
Exec ution
Ġad just
B uf
SI X
Ġb ib
Ġ0 2110
ch apter
ri e
at o
S ys
CA SE
Ø§ Ø
l ue
") ]
D ummy
W O
a h
Ġs vn
Re place
bin s
rou ped
fl ash
equal s
Ġposition al
Re po
zz zz
Ġproject s
Ġappe ars
ce ler
') ;
op ro
20 3
T IM
Ġe cho
L ES
w ho
valid ators
Detail s
Co unter
ĠPl ugin
patch es
Ġ:: =
I AS
Ġc lip
Ġno se
Ren derer
s olve
py c
Ġcan onical
M erge
Temp orary
y thon
ado op
30 6
ĠQU OT
NE W
8 02
IN ET
ne eded
80 7
18 9
01234 56789
B OT
æ Ĺ
as m
mo bile
Pro pagation
ĠST ATE
J S
ĠP e
gge red
file system
89 5
Content s
IN F
22 7
Ġtod o
64 6
ĠV ector
Ex ternal
doc test
ĠDe f
h orizontal
Ġe gg
O b
Ġcomp o
tod o
Sim ulator
Me dia
Ex port
Ġ' {{
PE CT
level s
3 88
Add r
29 5
ar ily
fo ot
S hould
u str
Ġde pendent
Pro gramming
w kt
Ġsw ap
Cer tificate
RO W
in p
ver tex
vide os
4 56
Ġuti lity
Comm it
T OP
Wh en
ĠG tk
uf d
ĠE mail
Un ique
çĶ ¨
MO DEL
Ġ ut
Ġc ss
14 6
man ent
super user
P D
" ;
Ġa ge
an der
ul ary
24 6
Ġre name
End point
ĠNe ither
35 9
Remote Station
D Y
Con structor
Ġsk b
ĠID s
data store
fir med
37 6
hex digest
G ame
: ].
Ġma v
ĠGRA VE
Variable s
Ġ( {
lic as
Ġlog ical
Ġauth ors
pick ing
Av ailable
Ġcm ds
) })
T wo
([ -
Ġspa tial
th ird
Ġe igen
] ",
st roke
un e
k v
co pg
c ube
form ance
Ġaccept s
Ġte ll
y ield
Ġsub mit
Ġs r
Ġin verse
Ġ3 02
b log
Ð º
Ġa ws
ĠO WNER
############################################################################## #
Ġ" {}
Ġco me
Con struct
sca ler
ann ing
Ġcho ose
author ized
an chor
are house
... "
18 8
01 01
ta iled
Pro gress
ID L
I ds
Ġexp anded
)) ),
if th
t mpl
ĠT YPE
Ġimp l
ĠG raph
ĠN ormal
)) [
30 7
Ġr d
FOR MS
Tests From
15 5
atom s
feed s
mag ic
ĠEx ten
' #
er nel
ue c
uf c
]+ ',
w ind
parser s
Sup port
01 2
Ġcl assi
m ass
EN AME
ron tend
j p
Ġ% %
I LED
Ġ' ..
Ġn n
ĠS ET
Ġapp ended
ik i
å ¤
decor ator
G u
v d
out line
25 7
y a
Ġex ce
we et
max imum
čĊ čĊĠĠĠĠĠĠĠĠĠĠĠ
ĠPro tocol
Wifi RemoteStation
Ġti d
lo s
U tf
b es
dat as
22 1
30 5
] ;
temp dir
L B
Ġfin der
Al gorithm
as ing
ang ular
Ġ[' -
R ENT
S ig
ĠN UM
... ,
ĠInitial ize
me ans
UN IC
ĠCol or
decor ators
22 3
Ġmark ed
Ġcon figs
ho u
Ġr b
UNK NOWN
Ġ* /
incip al
fetch one
S l
Ġa ux
ifi es
ĠConfig uration
Con v
Ġread s
No tification
ex tent
gd al
Ġis o
Ġis subclass
24 4
vid ing
Co upled
ĠF rom
moo th
Ġf oreign
Ġin crement
def er
AR G
tifi er
P lace
struc ted
Ġcontrib utor
reg istered
ols r
Ġp p
Ġin tended
Ġso ft
Ġg ui
O k
Ġ> ,
Ġ6 00
PL AY
Author ization
mut ation
Ġpay ment
aa a
Ġ1 0000
current Token
ST OP
(': ')
ĠT uple
LEN S
g uess
op ener
ast ic
Ġtri m
Ġbyte array
r n
ĠH elper
ĠDE VICE
O URCE
k lass
log out
Ġlisten er
Ġf our
lin space
ui tes
WIN DO
s ter
co urses
To ols
D AY
18 6
Re play
SP ACE
ar ound
lo ok
qual ified
ĠO PT
map ped
He ad
Ġb r
ĠS ite
Ġlocal host
in verse
si ted
e of
(' \\
ĠC ore
Ġsepar ated
Ċĉĉĉĉĉĉ ĉ
B and
ses sions
24 5
ume n
spa tial
ĠT race
fin der
ĠTe am
^ {
Ġo mitted
32 9
ress or
Ġdep end
H igh
Ġro les
c name
Rou ter
g pl
ch mod
ĠM SV
AT H
Ġbind ing
in formation
re aded
=[ ('
29 6
fir mation
v p
Ġmay be
relation ship
Ġno tify
yn cio
clo sing
Ġker as
Ġxb mc
M ON
ĠF in
AT T
ĠB R
y ml
ĠO Auth
() '
24 7
Ġpl ural
ĠU sing
PY THON
mpa ign
2 12
Ġsq lite
e Start
auth entication
ĠF rame
ĠA LL
Di ctionary
lex er
bu ilt
14 5
tera ction
D ER
si st
Ġeval uation
Ġdescri bed
i lo
Ġ6 5
ĠZ Z
ĠSp lit
D P
v pc
ra cle
i ma
Ġco verage
Ġ" &
Ġle af
Ġti ck
U DE
ro ve
Ġshape s
] |
last ic
32 7
PARAM ET
Ġg zip
Reg istration
ĠD ES
Ġnetwork s
tuple s
Trans fer
S ur
T ick
EX CEPT
E A
foreign key
po licies
TO DO
33 3
Event s
CR ET
D ump
Ġvari ance
ĠRe port
18 7
Ġpath name
sh uffle
R F
Ġh uman
13 1
ich ael
80 9
F LOAT
G ER
ĠR PC
config ured
čĊĠĠĠĠ čĊĠĠĠ
Ġin serted
Ġother s
le ast
F inder
Ġ"% (
V IS
ĠI mple
ue a
for k
ow el
w heel
Ġw ire
== "
ĠCon ver
Ġn a
s z
Path s
Ġex periment
join ed
im ize
ĠBytes IO
g iven
30 3
Ġ200 5
Ġreference d
Nt Gdi
Ġsh ard
connect or
pro cesses
LE VEL
ri cs
ponen tial
) ['
m f
Ġvalid ator
Sup er
THO ST
æ Ĭ
Pri ce
ON SE
ĠReg ister
66 6
ĠQUOT ATION
Ġp hy
LANG U
und o
Check s
pr inter
ĠAb stract
Ġe g
no ise
ĠD istribution
release s
bal ancer
ĠHe re
] ?
ĠF loor
] )))
s un
Ġd ash
Ġro ll
Ġpol ynomial
Ġhigh light
Ġ4 3
sub field
may be
( ",
ĠE ntry
av ailability
re pos
al ter
c x
Z one
b enchmark
) ':
v rf
un ix
), (
Ġd up
P ipe
Ġd x
Ġ1 23
33 9
^ ^
Ġd raft
fe at
19 5
read able
R T
lib virt
f q
code name
Map per
I ts
Ġhere by
Ġstride s
2 87
i ris
imp licit
par allel
D Q
Ġren derer
"," %
G reater
CT G
Ġm sv
(' [
cur ve
]+ )
ĠImp roperlyConfigured
c um
Ġs cheduler
ci se
80 6
commen ded
M a
Ġre cv
ra dio
Se cond
Conver ter
v in
ril lic
SU FF
Modi fied
y ang
hand shake
ug gest
ĠLay er
= """
(', ')
$ ",
v tk
ĠGE OS
23 1
Ġinterpre ted
vi ded
Ġfollow s
oriz on
4 88
De pendencies
c amera
en crypt
B rowser
16 3
ĠDi ctionary
d ue
de tection
de scribe
Ġ' </
Ġ' *.
QU ERY
36 9
ĠTest ing
: ,
Ġp ragma
am ble
Ġpredi cate
Ġ ########################
Ġt urtle
ĠT iny
callback s
ĠR ule
Down load
ĠT EXT
ĠC PU
ĠI ter
Over ride
Ġme mo
77 7
board Interrupt
USER NAME
E K
Ġe qu
ta cts
skip ped
region s
th row
... )
Tra iler
Ġt gt
Bounded Big
Ġ( ),
B IT
Ġqui et
Ġdest roy
ĠSer ial
riend ly
Stub Out
St d
ĠCa che
C ALL
me mo
Ã ³
Re q
Ġrepe at
mk dtemp
ch an
F ix
( ""
å ľ
M agicMock
st able
25 9
34 9
EX P
chanis m
ĠDes cription
() `
igno red
pe g
Ġse gments
Ġs low
id le
Ġ5 6
ĠSH A
B ER
Ġab ort
Ġsee k
G PL
Ġdata store
ĠUn it
ĠPar ameter
termin al
Ġen c
D ist
). \
With Mock
37 9
Ġpur pose
S izer
W ER
L AB
app ings
64 0
web page
Serial ized
p ci
h p
cur ses
ĠS SH
uti ful
cap s
ĠEn able
89 6
pread sheet
ä¸Ģ ä¸ª
15 3
ĠDe le
I FT
Ġdetermin ed
S napshot
IT ION
C lick
ot a
Ġfire wall
Ġv irt
Ġpredi ction
535 7
37 8
() ['
22 8
Exec ute
Ġ little
ĠCh romium
Ġti cket
ĠSy ntaxError
H ome
Ġn an
e ven
lap se
V IEW
lf ile
Ġli kely
i fic
ĠI ns
cal culate
ĠChar Field
root s
ĠF ifth
R GB
per ms
g ent
p assed
r hs
Ġgu arante
Ġh w
'] }
ĠS C
stream ing
ĠLo ok
ĠDo es
Sparse Tensor
di rected
tool set
Ġre levant
Ġs heet
} ;
ipe dia
C la
base s
StubOut WithMock
h ic
ĠM igration
Message Type
Min imum
E VT
ĠS um
s udo
Ġinst allation
A tom
j j
re stri
Ġ' {%
ver ti
mo zilla
Ġperson s
sess ment
B roadcast
B us
i ties
inter pre
Th reshold
al bum
Ġb i
ĠA L
desc r
H istory
R SA
def erred
User s
D RAW
ĠN ull
Ġj ava
'] ])
32 0
Ġopen ed
Ġg db
ORD ER
ĠL td
30 8
89 4
Index Error
t tl
expand user
Ġquot a
Ġr ing
ĠValid ate
33 6
Ġb lack
Ġcon sistent
imp orter
Ġleg acy
25 1
Ġlower case
Ġlar ger
T ON
ex cluded
t wisted
Ġad apter
Ext ract
Ġt ornado
Ġcomb ined
g ray
ge os
Ġres olved
scal ing
Ter min
Ġmo ved
h h
Top ic
Ġvolume s
Ġh ar
Ġma jor
serial ization
Ġcap t
å Ĭ
de clar
n ic
Ġli ve
col on
__ '):
Ġembed ded
C AG
he st
_ "
py gments
ĠU TC
ĠDis play
ĠF ail
auth enticated
ĠT ree
IP v
Ġm iddle
ne tes
ten ance
uber netes
Ġses sions
Pri vate
as sets
Ġt abs
Ġup on
CO OK
Po inter
TR ANS
Ġi ris
Ġattach ment
ced ure
Ñ ĥ
Ġ| \
S hared
ab b
14 2
Ġmime type
al o
> /
w ers
Ġw ave
19 0
C XX
p open
Ġ| |
V OL
new line
æķ °
04 30
ĠT LS
en rollment
Id x
} ')
__ '
ĠP R
Ġdi c
f x
que e
rep orter
tk inter
Ġprob ability
serv ations
S a
par a
Ġ: ]
Ġc id
ĠL et
AL LOW
Module Error
document s
25 8
ĠIn venio
imple mentation
Ġsee ms
à¤ ¨
h old
un quote
M esh
co pi
work s
ĊĠĠ ĊĠ
lex ers
Speci al
Ġexten d
5 84
Ġsen se
Ġm ass
not ation
Ġnorm ally
ch es
Ġpl us
57 6
g zip
Ġ/ =
A ctor
N G
Ġ4 9
Ġexpi res
Ġw izard
tri m
j inja
ĠE T
Ġpo sitions
sk y
ĊĠĠĠĠĠĠĠĠĠĠĠĠĠĠĠĠĠĠĠĠĠĠĠĠĠĠĠĠĠĠĠĠĠĠĠĠĠĠĠĠĠĠĠĠĠĠĠĠ ĠĠĠĠĠĠĠĠĠĠĠĠĠĠĠĠĠĠĠĠĠĠĠĠĠĠĠĠĠĠĠĠ
f an
iz ations
Ġrange s
ĠDe vice
SUFF IX
cla re
g tk
Ġre ach
Get Integer
Its Me
; </
vector s
data sets
q os
foc us
Ġst mt
16 1
pack ed
Ġdep loy
M aster
14 3
optim izer
Ġ(' -
AS CII
Ġ2 000
Ġan ce
ĠC alled
Ġcap ture
X R
__ [
FA ILED
ĠMe dia
rot tle
39 0
Ġcon ditional
Ġen ergy
Ġlimit ation
Bu iltin
ST Y
sione d
Ġdef erred
'' ')
Bu cket
acti vation
Ġqual ified
Ġde ad
7 55
qu anti
rep lica
stri de
Ġ[] ):
B undle
Ġa ir
ARR AY
D NS
m irror
s pe
Ġd c
S cen
Ġs ca
Ġ[' <
Ġpo tential
Ġ(' _
2 38
q name
cl assi
Ġcomp ressed
te arDown
vi ation
Ġb enchmark
M Y
ĠM apping
So up
expi res
Ġcoefficient s
al so
Ġs qu
IP S
Ġf raction
ĠV ER
VAR I
un try
ask et
__() ``
Ġpol ling
hint s
ĠD EL
ï¼ Į
T ry
on gs
ate ver
******************************** ********************************
ĠSP RL
K T
18 3
Ġclean ed
Empty AttributeValue
ATTR IB
Pol ygon
ADDR ESS
mer z
pen ded
second ary
c inder
ĠPro xy
Ġp en
L ONG
to uch
ĠB ar
Ġ licenses
pen ame
Bad Request
Ġ' '))
from Utf
4 54
s lave
Ġpatch es
Ġs quare
Per f
à¤ ¿
! ',
d al
e th
Ġd p
m v
IN K
Ġconf lict
Ġretrie ved
=_ ('
( "",
3 87
par agraph
Ġres olution
Ġav g
ĠSer ies
Ġmode s
rel path
po ols
Res olver
Ġobtain ing
in cluded
ur m
BB I
node Type
Com bo
Ġcho sen
b w
m or
ur a
' -
log ged
Ġcr ash
Un iform
le ave
m ute
Ġd ocker
ĠC ase
Ġ4 6
Ġmo ment
hash es
Ġcl assifier
r g
Ġg reen
.* )
Ġpick ing
require ment
ĠT k
ĠG u
++ ++
16 2
ĠSet up
Deserialize FromString
Ġpro d
26 9
4 09
u sion
path name
pri me
SR C
Ġp tr
ff set
With out
week day
Ġembed ding
ne c
Ġattemp ts
G ateway
en queue
]) ]
WA IT
. '))
N T
Se lected
Widget s
S B
Ġw sgi
r ink
} ))
Ġin coming
Ġpor tions
* "
Ġ tested
ren derer
Ġz lib
( %(
Ġf ar
p ic
ct rl
Ġco mes
17 3
ti lity
ĠT ri
ĠM is
AR M
fe rer
base dir
doc string
initial ized
Ġpr inted
DAT ETIME
ĠLine ar
SET T
F ROM
he ap
part ment
Ġb box
Ġprocess or
REQU IRED
Ġ0 2
ci lity
config fs
A E
n cy
ĠSup port
di ces
ber t
Ġcl assification
Ġserial izers
C LE
pi der
Ġextra cted
TE MP
D ICT
01 9
reg ression
Ġan chor
ĠCo mple
Ġc lock
trunc ate
le nt
at alog
Se gment
Ġ200 1
be at
] ")
Ġqu antity
! \
B ranch
ig hest
Ġgra mmar
v ated
Ġqui ck
aniti ze
34 7
EN TER
Event Id
E LEMENT
l as
Ġle arn
pi cture
Ġ ERROR
ĠT emp
with in
sub mission
morph ic
) `
L ike
umen ted
ti gu
Ġ' ').
01 8
ac le
ad j
ap ters
par titions
web kit
Y es
Len um
-- +
CO MPL
FR ING
Ġde claration
Ġ_ (
thread ing
pa gate
Ġc ard
ĠR ES
Pe er
S ING
ĠSpeci al
inter section
Ġpos sibly
ir cle
uest ion
# :
& &
ite ration
J ava
ĠDist utils
Ġs g
ĠG it
ĠEn gine
Ġ ul
ĠC LA
34 6
Valid ate
} _
å ¼
ti ll
res olution
Te X
size of
Ġimplement ations
CO D
8 55
... ")
c g
ffff ff
s alt
Ġre use
gr p
FRING EMENT
r ated
Ġregard ing
op rot
Ġhook s
se ason
to ms
comp ose
ĠPar am
è¡ Į
Ġpre dict
text ure
Ġmin or
coun tered
BoundedBig AutoField
29 7
iv ing
Rel ation
04 5
DO UT
Decode Error
Q ual
Ġsta ff
Ġin herited
ĠIn ternal
ĠLoc ation
Comp ile
Ġmat rices
an onymous
di rectories
ak er
D ay
19 1
Ġ6 55
comple ted
re ferences
pe p
ver tices
32 1
Ġaccount s
resolver s
4 07
S core
ĠT ra
AL IAS
/ #
uro pe
Uns upported
b m
ATE G
com bo
ĠRe cord
net loc
Se par
ib ling
Ġ===== ===
p od
Ġt ot
po sitions
B F
EM IT
Ġgradient s
ap is
, **
36 5
Ġpar a
Fa ctor
LOB AL
f ac
Ġdef ining
Ġn avi
pass wd
Str ings
d mesg
Z h
om inator
Ġwho m
Ġin voke
Wor ker
Ġcon firm
De v
Ġno tes
201 8
FR AME
36 7
cap ture
r ng
ill ing
oper ators
ci dent
Ġle ad
it ro
Ġ`` '
Ġinterpre ter
) ==
y our
Ġ' >
l hs
Ġn c
Ġ5 7
Ġsmal ler
Ġread able
b lah
Ġc nt
sp f
ĠPro duct
Gener ated
ĠCal culate
con struction
Ġmin ute
77 5
SY STEM
n os
Ġp at
Re vision
Ġowner ship
os sible
Ġin dependent
ĠF oreignKey
gorith ms
req s
a odv
s rs
Ġ ĊĠĠĠĠĠĠĠĠĠĠĠĠĠĠĠĠĠĠĠĠĠĠĠ
Ġthe ta
2 10
th en
ĠComp onent
B UT
typedef Dict
ex clusive
Ġol der
on ic
Ġget opt
Ġ> '])
14 1
e ch
() }
Ġv ault
S pa
ĊĠĠĠĠĠĠĠĠĠĠĠĠĠĠĠĠĠĠĠĠĠĠĠĠĠĠĠĠĠĠĠĠĠĠĠĠĠĠĠĠĠĠĠĠĠĠĠĠ ĠĠĠĠĠĠĠĠ
p rom
cnt l
Ġse ll
32 4
kw arg
ĠName Error
Pol y
Ġp anel
Ġt d
Ġme th
link ed
Get Serialized
sh al
im ated
Pick le
C GG
Q Application
R ON
Ġver tex
Ġ%} {%
li hood
ĠC lean
S ESSION
T V
ĠS R
Ġ5 5
FIEL DS
15 1
ĠO riginal
EXT EN
B r
GetSerialized Size
^ \
aj ax
import s
F inal
Ġin teractive
Ġw alk
SU CCESS
K B
foo ter
notification s
idi ty
re ach
ĠLo okup
o ffer
Ġa ffect
ĠĠĠĠĠĠĠĠĠĠĠĠĠĠĠĠ ĠĠĠĠĠĠĠ
publish er
, #
ro ut
Ġ1 27
ĠĠĠĠĠĠĠĠĠĠĠĠĠĠĠĠ ĠĠĠĠĠĠĠĠ
separ ated
GEN ER
de coding
---- ---
_ ()
IN FRINGEMENT
Al chemy
RESP ONSE
i co
, (
log file
ã Ģ
ware house
As ync
add Cleanup
04 9
Ġmig rate
R IGHT
Fi xture
================================ ================
Ġ', '.
HTTP Error
d jang
Ġm ouse
ID s
UNIC ODE
app le
Ġgener ates
Ġstatic method
ĠW ill
ĠSUP ERUSER
Mark er
ĠRo ot
G LE
y m
Ġc d
Ġv pc
Ġcal c
2 11
rel u
O rigin
Ġti le
ĠA fter
i ence
Qu ote
Exp and
ĠNOT ICE
ra di
Ġsh utdown
be low
serial izers
r nn
ĠFLAG S
C V
um ing
comp ression
Ġth us
18 1
Col lector
f h
AT G
Ġcal ib
spi der
DEFIN ED
ĠG Lenum
ĠW ri
Test All
load TestsFrom
Ġac curacy
Ġnamed tuple
Ġin c
sc ra
Ġmulti processing
override s
ar p
Ġg ithub
32 8
Ġf cntl
ĠIN TO
rot ate
C N
con tin
Ġmo ving
29 8
ĠTime out
ix map
M ASK
Ġre moving
Pa ir
Ġman aged
]) ),
Ġtmp dir
Ed ge
Se lf
Wifi Phy
Ġen s
RE PL
check out
ĠExt ract
Ġi dent
18 2
Ġauth enticate
Ġm ysql
vi a
P AGE
Ġde sign
27 2
Ġpur poses
Tag Name
FI RST
ĠCer tificate
iv ed
O Auth
Ġch er
x es
x html
ar ded
{ \
Ġd rive
$ '
F ill
s x
normal ized
Q Q
ol ated
Ġso uth
Rule s
no op
box es
Jo hn
coordin ates
(( (
dist inct
Ġd a
Ġup dating
Oper ations
Ġf aster
04 7
< =
ĊĠĠĠĠĠĠĠĠĠĠĠĠĠĠĠĠĠĠĠĠĠĠĠĠĠĠĠĠĠĠĠĠĠĠĠĠĠĠĠĠĠĠĠĠĠĠĠĠ ĠĠĠĠĠĠĠĠĠ
ĠAdd ing
Vari ant
is nan
åı ·
æĺ¯ ä¸Ģä¸ª
ĠRe gex
M icrosoft
as signed
http lib
Ġto uch
len d
Re pe
cut s
Mob ility
h it
ver ified
Ġcalcul ated
Ġr x
Ġ: =
Ġme n
temp erature
style s
get Attribute
Ht ml
av or
ge tenv
ER O
SE CRET
Match es
Ġbuiltin s
de bit
Ġx s
Ġapp lies
35 4
ĠS how
ATION S
56 78
Ġx block
ĠMo di
squ ared
ang er
cm ds
Model Admin
J ar
] /
è ´
di um
Ġrout ine
Replay All
uf ficient
For ward
Ġde ci
AC G
27 9
ĠCh ild
Ret ry
t an
al locate
Ġn l
Ġe le
Ġb g
Ġh alf
Ġ1 02
gri ty
Ġu an
Ġgener ating
compo sition
NAM ESPACE
ĠH at
SH ORT
Ġ200 3
Jo in
Ġevalu ated
bet ween
clo sure
L i
ri ends
04 2
iter values
Reg ression
dimension al
19 3
IDD LE
bu gs
cre ts
Float Field
g ain
ab ic
Ġab c
+_+_ +_+_
ĠF ILE
ig ure
H z
80 5
K ind
N ested
a fi
Ġsh uffle
) >
I A
T Ftdc
Ġre ceiver
ĠW in
AL F
Ġrot ation
ĠStr uct
[ _
o ser
Arch ive
= /
ĠU SER
"] ))
FO O
P UB
tera ble
ser tions
ĠS ingle
ĠON E
DIS ABLE
ĠHE AD
f raction
ul se
Ġ{} ).
r w
ta ck
01 1
CONT ROL
b t
w ide
re present
ĠWor ld
gradient s
b anner
64 5
Par tition
Ġc inder
Ġpro viding
Ġsub mission
ul ls
W M
ĠUn ix
Ġre ached
(" {
Type æĺ¯ä¸Ģä¸ª
Reference Count
F il
Ġdele gate
F ire
Ġg ather
ĠE ither
min us
26 0
ue l
ou ch
________ ________
AC CEPT
Scal ar
block ing
Packet TagList
il arity
arb age
ro gate
ĠE l
Ġch dir
Ġ7 5
F ore
n w
Ġre load
pe m
Ġapplic ations
Ġv isual
member ship
medi an
S F
Ġlib virt
can onical
TA X
Ð° Ð
g cc
ab o
ĠR ange
havi or
Ġnotification s
A p
m r
Ġd y
Test Result
la cing
ol ding
ĠB ig
un ary
ĠOr g
Te am
Sc roll
5 000
B al
Ġiden tical
Ġp ow
æĺ ĵ
ise ct
Ġ(' ',
Ġpe ople
inherit ance
Ġb ulk
cri tical
ĠElement Tree
ĠCLA IM
int s
Loss Model
attemp ts
ĠW ait
39 7
ĠST AT
ot or
Ġdata sets
Set Prober
Ġinte gration
Dest ination
od b
To Type
g reater
35 7
Ġregex p
AL INGS
Ġprefix es
tigu ous
G O
epoch s
ang les
Z a
pe ek
Se conds
WE B
P B
Ġpar agraph
sys vals
Ġpack ed
Ġp c
Ġdis covery
89 0
L AR
ch i
89 8
Ġalign ment
E OF
re m
Ġl hs
anis ation
Analy sis
Est imator
com ma
) "),
. /
vi te
Ex change
Mon itor
m aries
re cipe
li cts
vi sions
WifiMac Header
Ġsur face
d on
Ġinter mediate
ĠDE ALINGS
F ACE
E mbed
è ¿
assi ve
D OT
Ġl p
Ġpro g
b an
comple tion
AT FORM
language s
Ġplay list
ch romium
24 2
mp i
AT URE
sw ift
ToOne Field
Ġde ep
99 7
pri se
H and
re cognized
Ġx y
acc um
new s
ĠSt udio
A WS
'] ).
deli tem
ĠNON INFRINGEMENT
Ġc rypto
len v
Ġstack level
subscription s
one y
ĠĠĠĠĠĠĠĠĠĠĠĠĠĠĠĠ ĠĠĠĠĠĠĠĠĠĠ
ance s
Ġorg anization
db name
qui ck
At tach
e ItsMe
out ine
ro utes
ĠP op
dar win
BIN ARY
T I
al ty
work space
no br
35 6
Ġconn ector
ĠW AR
86 9
to c
Ġde serialized
Le g
c rc
Ġco ords
DE V
1234 5
ĠReg ression
Ġco variance
01 3
Ġdo ctype
Go ogle
4 55
ĠS chema
Ġ4 03
Ġexec utor
Temporary File
BUT TON
Ø ±
Ġin string
=' ')
ĠIn stall
Ġpy gments
* )
d g
t ot
Run timeError
ĠExten sion
D uration
R aster
S UM
a co
y per
32 5
################################################################ ################
Ġmime types
äº¤ æĺĵ
Ġb p
ĠĠĠĠĠĠĠĠĠĠĠĠĠĠĠĠ ĠĠĠĠĠĠĠĠĠĠĠĠĠĠĠ
Ġas cii
Ġhe ap
Ġ6 7
y ou
is tent
27 0
row se
EX IST
ĠD etail
ĠSet tings
U Int
ur st
ab lish
comb ine
stan tial
_ ))
CON ST
ĠV irtual
XXXX XXXX
FEAT URES
4 02
Ġtrans formation
p th
Equal s
Ġint ro
27 6
dimen sions
in strument
re o
Ġcomb ine
" )))
zone s
SY S
ĠSpeci fy
' %(
C AL
Ġs f
la titude
7 54
Ġ Ã
sub plot
Ġman ip
product s
driver s
ĠComm unic
ces sible
loc ated
Ġbin s
)) /
Ġtoken ize
4 06
Ġc ent
ol low
ĠM AC
no unce
df hf
dist utils
Ġsort ing
OPT ION
4 03
ĠC L
User name
\ "\
87 5
ĠAnsible Error
Ċ ĊĠĠĠĠĠĠĠĠ
di ter
o e
z ation
indi c
oc ation
Ġ@ @
on ts
IF Y
K D
Ġs aving
ĠCon trib
U C
Ġsub sequent
Ġtw ice
ac curacy
P lan
h op
Ġn t
H op
ans wers
sym link
R R
ĠS tep
ĠI ssue
IN AL
Ġ4 1
Ġfast binary
L IMIT
Ġback ward
ç º
Ġtext wrap
char map
ĠD own
Ġsub stantial
B in
Ġif ace
to ggle
Ġcher rypy
id l
urn ished
sent inel
Ġend ing
Ġef ficient
") ])
os pec
Row s
26 7
ĠFe ature
mp s
tr unk
cap tion
Del ta
] })
ĠDe precationWarning
Fa ce
Hash er
optim ize
( .
* ')
me nd
PR IV
13 07
Ġconfig urations
ĠS patial
34 0
En umeration
Ġc flags
Ge om
Cre dentials
ms gs
Fin ished
Ġclient s
Ġhow ever
con catenate
Ġlinen um
ĠCon st
se quences
Ġa way
hic le
+ )\
24 3
u tive
34 8
39 6
scen ario
' (\
Ġi e
Ġcon s
Ġauthor ization
T D
ĠA p
ctor s
ag g
9999 9999
IG H
con crete
check box
Ġfil led
o pe
} },
Ġmin imal
DU CT
84 0
M F
Ġto lerance
86 6
Ġt v
Ġcon trols
ĠValue s
or med
Ġ5 4
exec utor
? "
Ġsub license
Ġobj s
b at
=" #
fd m
SE CUR
Ġimp orter
ĠRa w
ĠH as
ĠCon n
ĠKey boardInterrupt
Ġcallback s
feed back
l legal
r sa
ĠT CP
> [^
r split
ĠOption Parser
Ġm ixed
Ġ( `
cal cul
Ex pect
am i
Ġoptim ize
nec tivity
f u
Î ±
re versed
Ġdi rectives
ĠM ongo
AL LED
Ġ/ *
Ġre ceiv
Ġde clar
we bsocket
HE IGHT
ĠSet ting
Ġbel ong
sc atter
ĠC OL
ĠRa dio
ĠApp lication
Ġth ink
top level
Ġinte rest
C apt
b on
from string
we ighted
Ġpro j
Ġcomp ared
SK IP
Ġmod name
up on
Sub ject
Ġs atis
and atory
PO P
IO S
H AS
et ched
pro pagation
{} ".
ĠMan ager
Ġgo es
5 77
Ġ3 30
Ġpa st
l un
in teractive
re actor
de clared
Ġm appings
struct ures
set Level
39 4
ĠCurrent ly
C enter
de tect
Ġadd on
SECUR ITY
temp orary
Ġq ty
Ġdown loaded
te ad
li ze
co vered
ua lenv
pe ople
py plot
Ġ5 3
an other
Ġpa ren
Ġ1 92
cap t
Be fore
ite rations
24 1
esca ped
ĠC ategory
so cial
n dims
Ġ1 80
contain ers
RU LE
lav ors
D imen
e asy
w raps
50 7
Ġproduce d
ĠBR ACKET
M s
ĠL INE
Ġco urses
/ ")
Ġs ale
ab cd
Ġx code
17 1
čĊĠĠĠĠĠĠĠĠ čĊĠĠĠĠĠĠĠ
35 0
Ċ ĊĠĠĠĠĠĠĠĠĠĠ
ree ment
Ġsp an
ĠSta tic
Propagation LossModel
Ġa zure
li fe
qu ant
RE L
dep loyment
For ce
redirect s
Ġtar file
Ġtyp ically
č Ċĉĉĉ
Qu eries
Ġh ist
Ġdi rective
r ss
x en
he mer
Ġ* );\
Ġopen ing
' ;
unt u
Ġqu anti
ĠTe chno
setup tools
Ġderi v
d ark
Ġ'* '
Ġcach ing
Ġs dk
Ġun ion
ENT ITY
Ġp n
Ġw anted
to list
max size
ĠPass word
Ġ( ('
ĠN AME
Ġt t
Ġs nap
Ġin venio
ĠG lobal
Ġnode list
27 5
Socket Address
Ġl r
field name
Ġ', '
Ġc api
Test Runner
Ġden sity
att name
Track er
Ġ ._
di sp
is a
ry pt
87 9
con trols
Ġcomple tion
Ġdescri bing
> (
G ot
ĠP EP
skb addr
COOK IE
Ġdeg ree
Ġm ix
Ġ6 3
MEDI A
\ )\
up loader
fo ur
Ġsym bolic
id om
Ġex tent
Ã Ń
Ġe tag
'] })
V IR
Ġse l
M ail
EC ore
w c
Ġr sp
iv ot
ĠDate Time
'] "})
gra ded
Query Set
Ġscal ing
b x
f v
l ator
ĠFor ti
Message Box
il ation
res olved
... '
align ment
W imax
p lots
04 6
Ġshow s
Ġsc roll
n The
ĠEx tended
Dis able
Nt User
AAAA AAAA
multip ly
Ġnon ce
Ġoptim ization
Ġ5 8
Ġh ide
-------- ---
SS H
pro vision
Ġcorrespon ds
la ps
cc cc
ig i
Ġ---------------------------------------------------------------- -------------
g lyph
sta tistics
50 6
Re st
Ġld ap
à¤ ķ
Ġch anging
26 5
26 8
ĠCode c
Ã ¤
Ġ7 9
G iven
Ġcol lected
ga ther
Ġfr ont
en dif
fi ce
ad b
[' __
Ġde scribe
33 8
Resource s
t witter
en der
CLASS ES
To o
æ ł
Ġext ras
Di rectories
f A
trans actions
Interface Address
ĠSUP PORT
M ust
Ġf an
Ġh i
IO Error
c ards
en k
Ġver tical
ä ¿
in a
__ ')
Ac ti
INIT IAL
li min
Ġcon t
token izer
SHAR ED
Ġre la
ST OR
pri or
F it
node Name
Ġlist ing
Ne ighbor
u o
Ġn secs
Ġw arehouse
DI ST
'] =
Ġ: ,
Ġco v
ĠB ea
Ġstream s
export Literal
Sec ret
Mobility Model
Ġsent inel
33 5
Ġdele ting
Ġmsv s
ĠEx pected
th an
opro ject
le ad
et ing
Ġcon crete
MA CH
long itude
Ġsimple json
vari ate
Ġconver ting
sy ms
G LOBAL
Ġw ish
Ġac cessed
Ġbo ard
37 0
ĠCheck s
c gi
ane ous
Valid ation
pop ulate
4 74
si mul
Object Deleter
ĠBe cause
Ġhe alth
Ġprece dence
ate ly
imple mented
Ġpre c
:// %
ĠMSV S
pre f
99 8
Ġback slash
C ard
Ġpar ticle
ph oto
SE CTION
Ġtop level
LAB EL
O fdm
new lines
R x
U AL
En rollment
Elements By
g m
ab ort
38 5
UM E
F r
y label
ST DOUT
Ġsecond ary
Ġweak ref
." ))
+ ')
Ġsize of
Ġscen e
ĊĠĠĠĠ ĊĠĠĠĠĠĠĠ
('- ',
202 2
D H
ĠT er
Cal cul
ĠSec urity
B a
Ġcl usters
ce ipt
Ġs it
Ġsub s
Ġopen stack
ĠJ ust
uff fe
Ġn at
ĠP ER
ĠSto re
F req
l li
Ġs i
A sia
se gments
in file
ne ighbor
Ġcomm unic
AUT O
IC K
Rel ated
vile ges
N ON
] },
d og
[' %
atter y
w allet
pos sible
ĠSta ck
B AR
is digit
tri ct
IS H
G yp
S CH
X M
Re quire
Ġnew ly
Ġpop ulate
32 3
Attribute Information
Change s
Ġf w
27 8
ĠST ART
ch allenge
C s
E nsure
Ġex clusive
__ ",
ĠS c
Ġres pec
Ġlo t
ri tical
Get N
Cre ation
IL DE
her its
Ġreport s
] ]),
Ġinter cept
s ho
Ġb ridge
tri c
ĠDef ine
SETT INGS
ĠS park
XX X
202 0
AN NEL
ĠD WORD
pi o
50 5
ĠRet rieve
Co ordin
make file
Ġbehavi our
Ġaltern ative
39 8
FO UND
Optim izer
LANGU AGE
B reak
ti er
ĠS A
tool bar
Ġ4 01
Ġfe at
TR A
Ġstruct ures
P ublish
u lo
CL UDE
Source s
Ġ1 20
wik ipedia
I ns
pl ug
ĠComm on
M IT
ĠD ec
Function s
Ġau dit
con fidence
be come
Ra tio
Ġd d
sta ur
Ġiter ate
auth enticate
88 9
Ġglob s
W atch
m ix
Ġg uest
ve st
trans lations
head ing
r al
Ġf urnished
ĠA pi
u li
Ġli mited
FAIL URE
AR GS
xml ns
ĠVAL UES
E MPTY
G ate
ĠP open
02 9
88 8
ar abic
T ex
Ex pi
Ġte le
cf lags
57 9
D ot
qu otes
Ġdomain s
" %(
O G
Ġcomp utation
: .
f old
ĠNe ed
djang oproject
U ri
ame s
Label s
B roker
Ġw raps
FORMAT S
diffe rent
Ġres pect
ick y
bl k
Ġagree ments
ch ie
B ot
Ġb b
to string
SD L
Ġep silon
Ġthrow n
den ted
access or
S lice
li ers
H PDF
ti a
h m
al ready
ame nt
ĠU I
39 2
Ġexec uting
regular izer
0 66
Ġinter polation
writeField End
writeField Begin
C DATA
Ġ[' __
Ġ' ='
Ġd n
Ġstr ftime
Log ging
Ġ ####
ĠS V
E p
R G
Ġr t
Code s
ĠDo main
Ġ serve
Ġf akes
T r
iz able
Ġrender ing
Ġloc ator
Ġdele tion
? '
Ġra di
Date Field
C ross
sen ce
L ost
Ġpro posed
ĠM erge
i et
(' .',
({ })
d get
ĠLa TeX
è ®
AG G
ĠPy Qt
ce il
Ġst ores
ms build
(' "
ĠIn st
Ġtyp ing
L inux
ĠI gnore
wait ing
Ġbal ance
Ġphy sical
è µ
(' (
59 2
39 5
ome tries
tor rent
ĠT ILDE
pro tection
Is A
of s
Ġappro x
Exten ded
over flow
Gener al
RES OURCE
iver sity
V ED
tx id
w f
Ġof ten
Ġtran sition
w ill
Ġpo licies
Ġear lier
c riteri
ma ch
Ġof proto
Ġwork ers
prefix es
Dep th
Target s
K ernel
mo val
scope s
en umeration
Pr inter
ĠT op
ĠG yp
Ġen codings
Ġ'_ '
li mited
33 0
E B
Start ing
99 6
co erce
ĠR EG
tran sition
? ://
c api
te l
ĠHTTP S
Back ground
Ali as
") ):
GE OS
æľ Ł
E F
Ġi dentifiers
__( **
pl at
Ġ6 6
Ġne g
V P
al arm
ĠB inary
44 0
f la
Ġv o
Ġg lyph
Rep ly
quee ze
x label
Me m
email s
ĠMo ve
[:: -
p ot
istribu ted
Comple te
N L
Ġp sy
Ġfoo ter
S PE
get ElementsBy
ud y
Fl ask
st ra
dat atype
Ġre moves
is ters
80 3
ini ti
white list
Ġoption ally
rp m
** (
ener ated
S k
info s
ĠConfig Parser
ex change
Ġmon key
ag ain
percent age
:: _
Ġpl ug
j id
author ize
play book
MS VS
Ġp m
Ġm obj
qu o
Ġstart up
CUR RENT
ĠMax imum
Ġn ice
ĠC LI
Match ing
Scen e
x mit
02 7
AP PS
Ġ"_ "
irc uit
And Verify
ma pp
F uture
File Path
T Z
i dentifiers
al locator
> ::
j peg
Ø ¯
base line
Ġlock ed
vl c
Re ceive
ph ases
context manager
Ġup loaded
tests uite
f ds
Ġs olve
un safe
ĠC ar
Re cur
ĠDe bug
PRE C
failUnless Equal
sci py
w i
agent s
[ @
inter p
off sets
ros pection
+" -
Ġn sec
ing ular
p wd
ĠSt reet
ĠOpen Stack
T OT
u er
Ġ... ,
(' </
CAP E
ific ant
Ġr m
queue d
La zy
retri eve
2 13
U X
03 8
au dit
embed ding
Ø ª
AT IVE
Not Implemented
ĠAn aly
DAT AB
dele tion
ĠM S
NO W
lo city
=[ ])
Ġrelease d
e very
AD MIN
Ġ' ;
Ġde clared
ree k
Ġexpect s
x module
Ġf atal
Ġdep loyment
ĠOpen SSL
ret ch
One ToOneField
ac teri
Na N
s ucce
UR SE
ĠSQL Alchemy
Ġn ic
Ġhand shake
Mon th
K L
st o
Ġ# ----------------------------------------------------------------
am ba
Ġindent ation
Ġt reat
Ġ1 01
ĠS DL
ag o
ĠDO M
v ote
Ġre commended
Ġs lots
ĠP art
35 8
afi i
Q A
Z W
op code
ĠM ultiple
Ġmark ers
; &#
set Enabled
Ġtype handlers
G INE
_ ("
é Ģ
def ines
CT GG
O VER
high light
s ax
å Ľ
sub stit
b ld
Ġun quote
, [
l m
medi um
e ast
ĠA mazon
sub title
84 3
Ac tivity
N ow
i ro
con ditional
Pri ority
**************************************************************** ********
mo id
Run time
Ġdeg rees
Ġb lah
Ġmo vie
Ġroot s
s low
lo pe
Al ter
LIC IT
re write
ma ker
cl assification
open Elements
Ġvalid ators
node list
4 29
V ec
Ġp wd
value Of
S ort
Ġthe ano
comp uted
Sh ift
Cre ating
" {
- ',
P ixel
ti ent
ol l
ĠPro file
order s
Ġpre ferred
Module Store
Ġ* "
C SS
li s
ĠCommand Error
disc ard
H ASH
Ġen cryption
)* (
Y our
Ġat trib
Ġsm tp
Ġma ch
ĠRe place
De pendency
Ġload s
Group Name
LIB R
Lib virt
76 8
ĠMe mber
disc ussion
ra b
Ġas sertion
lec ule
P ress
Ġt c
Ġt rees
pro ba
us able
v or
Byte TagIterator
* ",
c it
"> %
QU ARE
ĠG ui
Get s
ĠCo unter
track ing
Ġrest ored
vi f
Ġ[] ),
Enum Value
Ġe ver
si lent
Ġlet ters
staur ant
li o
G UI
Ġe lapsed
Test Base
Ġread line
Ġw a
tri al
. ])
st ors
Ġh ierarchy
com mend
Ġintern ally
M Q
final ize
D ynamic
Ġ' ^
ĠS uite
Ġen dif
DIR S
IF IC
Ġsl ash
s olution
Ġp list
Ġdi ffer
end points
Ġx path
predi cate
ad m
mat mul
Ġwork space
Ġo d
R FC
mo v
BRE W
ST ER
PARAMET ER
ĠF OUR
_ ',
Ġs pe
co lour
fl ux
termin ate
d rag
s uspend
de tach
ER N
new axis
vi es
I e
Ġca uses
desk top
eg gs
Ġstrip ped
Ġl xml
B ridge
Ġc ity
ĠPy gments
A ES
ra x
or ation
Ġest imate
Ġin strument
Con tact
Comple x
ĠContent Type
abe led
Ġa toms
ĠRe ferences
Ġ` [
pos al
sy scalls
Message s
ĠGet s
Ġad j
Ġwri tes
Ġcertificate s
g if
y ellow
Ġ( ))
ĠĠĠĠĠĠĠĠĠĠĠĠĠĠĠĠ ĠĠĠĠĠĠĠĠĠ
Argument s
ĠUN DEFINED
34 2
6 09
re ctor
ort ran
28 5
Ġph i
u di
Ġin ts
US H
P TR
be am
Ġ" ."
ĠS parse
AG IC
CP P
: {
il led
sql alchemy
Ġsen tence
Ġcon struction
37 3
Ġbra cket
a ma
r find
to s
Ġro bot
Ġfilter ing
NAM ES
Ġtrun cate
z ulip
\)\ (',
Ġan g
for tios
Man agement
Option Parser
Ġa ri
client s
Ġen countered
heb rew
t otype
"> \
NET WORK
Ġk ill
ĠBea utiful
length s
deli very
AG ENT
m ing
qu ad
Ġwe bob
Ġmo ves
Ġscope s
NetDevice Container
hemer al
st uff
Ġ[' --
ĠID L
iden tical
u ds
in fer
ĠS ize
77 9
Ġrep orted
pe ts
RE Q
av atar
50 8
t te
ĠJ son
net mask
Ġ5 2
89 3
K it
Ġblock ing
Ġpacket s
bra cket
k m
n up
Ġ' !
Ġtrans lated
à¥ ĭ
a ware
b rid
Ġon to
DEF INE
Ġres ume
Ġd mp
Ġ(' /
BO SE
ut s
Ġwe ighted
Ġ6 9
Ġtopo logy
T ran
Ġs d
Ã ¶
Char Block
Ġmember ship
Ġph one
ĠApp ly
= ')
ĠL im
ĠH ome
26 3
FA KE
con tract
ĠS ig
77 6
Check ed
el come
ĠG PL
ber g
ak s
mapp ings
H SG
K G
t rees
module Name
64 3
assertRaises Message
tim ing
Small IntegerField
pol ate
Ġ lf
Ġcon j
ĠW ord
Ġen crypt
Ġ7 6
Ġhash es
........ ........
w p
Ġdir ty
å Ń
ad vanced
Get Hash
L ang
e y
DRAW NS
CON NECT
over write
ing u
In finity
stop ped
B ITS
ĊĠĠĠĠĠĠĠĠĠĠĠĠĠĠĠĠĠĠĠĠĠĠĠĠĠĠĠĠĠĠĠĠĠĠĠĠĠĠĠĠĠĠĠĠĠĠĠĠ ĠĠĠĠĠĠĠĠĠĠĠ
Ġst ar
Ġcomb ination
h ance
at in
re qui
Ġlo st
Ġear ly
MOD UL
æĪ ·
R IC
de dent
[ ,
(' $
ab i
Ġco eff
Ġ7 8
Command s
87 8
Ġs udo
Ġe sc
ĠIn cremental
oo oo
G it
N umeric
i mag
ĠC SV
87 6
expi re
Ġde cision
led ge
ĠAnd roid
en roll
ac ute
uz zy
/ {}
m ult
' ``
Ġcon structed
ĠV isual
ĠDe termine
Dest roy
+ )',
Ġo cc
ĠI ECore
fr ont
Ġte x
istr ator
Ġ1 50
Ġaccept able
duc ing
sh adow
div id
m w
ser ving
Ġse ason
Ġt cp
cl assifier
Ġexpi red
Ġs ay
Ġbuild s
ĠTH AI
Ġ" :"
Ġro om
go ti
R ot
Ġme chanism
Pre di
BRE AK
99 5
set Value
Ġin file
ĠM IME
Form Set
Ġh er
M i
in sertion
Check ing
ãģ ®
F ULL
n ex
ab ling
Ġback ends
Ġpredi cted
M ATCH
de sign
Ġ( \
ĠWAR NING
Ġf ee
L android
ĠC ity
ĠEx pr
Ġbin ascii
em u
1111 1111
enk ins
f lex
ub mit
34 3
Ġn r
Ġ12 34
D ROP
con j
ĠS ame
Ġprint s
Cer t
i el
ar ator
ĠRa ise
G ithub
D uplicate
al a
Ġfl ash
###### #
Ġpro jection
Ġex e
Ġde mo
run e
57 5
ĠSE PARATOR
Ġedi table
H R
Ġ2 04
Ġver ification
7 67
Ġ' "'
mod name
Ġ200 2
ĠWh at
py file
Ġcomplete ly
ĠP lot
ĠPer form
In et
ĠK eep
ĠCo okie
A f
Ġde epcopy
Ġyield s
Ġimport lib
Ġtoken izer
C FLAGS
h istogram
t bl
cr ash
re conc
sp in
ĠI Flag
ĠF ix
Gra d
# ================================================================
B ank
in ject
ĠInter face
M at
Ġun iform
Ġexp ansion
26 2
ĠĠĠĠ ĊĠĠĠ
Ġn inja
ch k
RE EN
Me an
ĠCo unt
wri ting
X i
cr on
Ġf k
ĠUn known
86 0
CH ANNEL
Ġtrans formed
Ġms build
ĠC lear
open ssl
ĠSystem Exit
OFF SET
ĠA B
g rate
02 6
Ġtemp erature
As sertionError
predi ction
TL V
4 79
P ART
ĠRe al
Ġgo al
oc s
Char acter
PRO DUCT
Ġpie ce
Ġtext ure
Ġt tl
ĠAS F
W rong
dis covery
Cal culate
h ierarchy
Ġen crypted
" ?
h uman
s lices
84 9
g oto
ame l
Ġen rollment
Ġro uting
88 88
Ġreason s
n ight
Ġun changed
Ġcre ator
G V
Ġ} ]
COD ING
J OB
ĠR EST
RO LL
Ġj ump
In v
G YP
m iddle
ar ma
di d
Ġoper and
Ass oci
b are
in structor
Ġen queue
Ġca pacity
Ġ201 8
ver s
batch es
S CS
th resh
le st
Ġn ick
raw data
Block Ack
H D
Ġf tp
Ġeas ier
ref lection
Create Model
Pri mary
Ġspa m
Ġcol lector
ĠU ses
String Field
dispatch er
ĠS cript
In strument
66 7
Vi sible
Ġcap abilities
O wner
Ġc map
HTTP S
scri bed
bb bb
ĠĠĠĠĠĠĠĠĠĠĠĠĠĠĠĠĠĠĠĠĠĠĠĠĠĠĠĠĠĠĠĠĠĠĠĠĠĠĠĠĠĠĠĠĠĠĠĠĠĠĠĠĠĠĠĠĠĠĠĠĠĠĠĠ ĠĠĠĠĠĠĠĠĠĠĠĠĠĠĠĠĠĠĠĠĠĠĠĠĠĠĠĠĠĠĠĠĠĠĠĠĠĠĠĠĠĠĠĠĠĠĠĠĠĠĠĠĠĠĠĠĠĠĠĠĠĠĠĠ
the sis
Ġfor k
86 7
si ent
Ġch allenge
Ġnew lines
Ġemail s
c ue
Ġp asses
parse String
ĠHttpResponse Redirect
6666 6666
ĠP IL
HTTP Server
SD K
al location
Re cords
Ġprox ies
> `.
ĠMan age
og r
Dec orator
w k
fi ts
'] },
AS F
rec ent
EL L
Ġreduce d
de compress
IP Address
PR ES
Co ord
Ġdebug ger
P ur
ĠĠĠĠĠĠĠĠĠĠĠĠĠĠĠĠ ĠĠĠĠĠĠĠĠĠĠĠ
IL L
Ġav ailability
` ).
file list
RE M
99 4
subnet s
h cp
ĠS afe
N P
Ġver tices
Ġar c
TestAll Types
Tensor Product
Ġrout ines
al ker
ĊĠĠĠĠĠĠĠĠĠĠĠĠĠĠĠĠ ĊĠĠĠĠĠĠĠĠĠĠĠĠĠĠĠ
Ñ ı
pro f
sp here
Ġdiff s
201 9
H idden
Ġc as
ĠIN TE
Par ticle
Re verse
append Child
DO UBLE
s ound
Ġhard ware
57 8
g A
pre ference
Add s
k now
s at
re ctions
RO UT
27 3
Packet TagIterator
# *
m ic
AV AIL
Ġm time
Ġbel ongs
ul let
in place
en dian
Ġr val
Ġret Val
Ġdat as
å º
66 9
Ġmis match
Zip File
Ġi ps
ĠV olume
Pro c
phy sical
Ġde cl
\\ "
li sted
co variance
ex istent
Ġsome times
; ")
t age
or tion
Ġde veloper
36 3
Ġcirc ular
e per
on or
Ġrecur sively
ud p
Ġsimp lify
â Ķ
V isual
k ube
se lenium
ĠGener ator
gener ation
TEXT URE
getElementsBy TagName
g ap
di rective
SE C
Dis abled
ĠHTTP Error
re boot
ump tion
wri table
ä» ¶
Ġb z
bo o
ĠJ ob
Ġo paque
ĠA T
REC ORD
Ġw ants
R S
re x
TR UE
bucket s
-+-+ -+-+
divid ual
C Y
P adding
assert Greater
IL LA
Ġid le
Ġc StringIO
Ġe mulation
Ċĉĉ ĠĠĠ
cy g
f ingerprint
en crypted
(' //
_ ='',
Ġpass wd
Ġauth enticated
con version
Ġsh adow
56 8
Col umns
Vi sit
A W
cho ol
Ġplace d
G amma
inte gration
3333 3333
Ġp eek
Ġtermin ate
S OL
ĠP ATH
RES H
Ġr p
ĠEx pect
Ġcandidate s
86 5
... ')
de limiter
Ġp ress
co sh
Ġ'/ ')
Ġdistance s
Ġdiffe rences
U V
Ġp ure
59 6
en cryption
is null
Ġat t
List s
29 0
skip If
DES C
sca led
Un its
Ġg id
FT P
Input s
QUE UE
i ff
ĠRe quires
26 1
of proto
di e
Ġg iving
sign atures
trans forms
UN I
200 2
)/ (
ĠDEL ETE
ew idth
35 2
c u
f ti
Ġt ls
56 9
a mazon
Ġover lap
S peed
ip pets
ren ch
e uc
å ¯
al ax
pe ctor
co uld
69 6
Reg ressor
q n
th ost
Ġc le
Char SetProber
flow Error
Ġtrack ing
V A
Ġoper ands
Ġh olds
sr v
Ġ ĊĠĠĠĠĠ
R ANGE
ur on
V e
ĠA li
folder s
fin ally
State ment
Can vas
ĠConn ect
c am
Ġc amera
on line
Ġbe h
Ġr gb
wa ke
Mar gin
S lot
Ġse man
sp ot
84 8
Ġspa wn
Ġfi xtures
T k
Clo sed
ĠDi rectory
_ *
Ġmulti part
Ġassume s
in voke
Ġ( #
Ġcon fidence
local time
Ph one
+"- "+
E urope
q p
up s
Ġa mp
Ġv if
)) ):
conf lict
'" },
Ġv rf
Ġre size
': [
Ġde tection
cr m
8 000
N ER
Ġm irror
Ġw ays
Config Parser
END ING
Ġp aper
h ape
on om
ĠAs ync
ony m
B M
c reds
ĠS ample
ex planation
Ġc ustomer
Ġm andatory
ĠR ow
Ġcalcul ation
64 1
start tag
Ġindex ed
te ardown
ĠL ast
Sub net
gramm ar
e ye
log ies
Re ferences
Ġcheck out
CK ET
msg id
token ize
ĠSe ction
Ġstop ped
ĠDocument ation
ĠJava Script
/ ]+
s py
te le
ĠU ns
AL IGN
di ts
ich r
Ġin finite
Ġ# ~
Ġh dr
"] ]
ui ck
T K
exp ressions
ĠDO MAIN
i ters
un supported
66 0
mer ged
Ġregard less
Ġtrack er
n est
ĠTrace back
1 00000
g data
sp l
Rel ative
comp ound
* ?
å ¸
Ġ" >
code d
be ard
sis tence
ĠSystem s
dele gate
| %
Ġt cm
ari an
ĠDe velopment
n z
ĠI E
ion s
af ka
war ded
Ġsym link
Ġrestri cted
n object
er t
ĠS QUARE
UR ATION
Cy cle
R N
PO LIC
Ø§ ÙĦ
G N
me tic
siz ed
ĠO racle
Ret rieve
i map
teri zed
" /
L et
f ar
Ġa cl
format ted
Ġcur ve
S AS
el ve
04 35
At temp
Ġ7 2
Ġ ĊĠĠĠĠĠĠĠĠĠĠĠĠĠĠĠĠĠĠĠ
Element Tree
round ing
D ense
t gt
Ġp od
el t
snapshot s
ĠM icrosoft
Ġcontain ers
Ġg ain
mo tion
no ther
; &
H ub
Î µ
Ġoff sets
53 17
Run AndVerify
Ġex change
Routing Protocol
ĠIns tead
c w
u FF
å °
pro bs
il ls
pa g
ĠE C
Z ONE
Ġs ynchron
35 3
Ġh ighest
Ġk s
app engine
fn match
tun nel
R X
rot ation
86 01
Ġ[]) .
plan e
> """)
v ac
Ã §
re dis
log ic
z lib
č ĊĠĠĠĠĠĠĠĠĠĠĠĠĠĠĠĠĠĠĠĠĠĠĠĠĠĠĠ
Ġconver ts
Ġatom ic
EXCEPT ION
Ġun set
cas cade
7 07
Ġh istogram
pp rint
Ġqu ant
N TAX
de precation
state ments
02 1
TOT AL
= ("
def initions
dd d
comp atibility
gr pc
Ġdist inct
Ġi i
fire fox
ĠCon tainer
Ġd l
ĠRe f
ĠX Block
Ġexpi ration
B SD
th ough
cor ded
open id
Ġlib xml
): ]
fa ctories
Î ¿
Ġprovi sion
ul ates
Ġbecome s
VERT EX
} ")
Ġm v
S ide
i tion
Ġb roker
Ġw ind
ĠI d
54 9
R ing
ce le
Ġacti vate
ĠGui de
Ġs ites
ex am
- (
Ġc trl
Ġde scriptors
Ġcur ses
86 8
200 4
Ġxml rpc
Ġinherit ance
IGNORE CASE
ĠF I
tp l
postgres ql
=% (
Ġun i
FIL ENAME
Ù Ĭ
Ġs park
ĠG ROUP
Ġpy tz
so lete
dis count
A bs
in correct
h adoop
file Name
Ġli fe
_ ')
ĠConfig ure
Ġposix path
x l
ĠH elp
back ward
59 0
59 7
Ġorder s
Dis patcher
TAB LENS
64 2
77 4
J O
Bytes IO
H S
RO LE
expi ration
Ġnume rical
E O
T ES
Z X
ĠA zure
Ġ`` (
FUN CTION
de claration
con sistent
style sheet
WINDO W
function al
distance s
ĠPo sition
A udio
n arrow
Ġt un
H W
Ġsub dir
G Y
39 3
ĊĠĠĠĠĠĠĠĠĠĠĠĠĠĠĠĠĠĠĠĠĠĠĠĠĠĠĠĠĠĠĠĠĠĠĠĠĠĠĠĠĠĠĠĠĠĠĠĠ ĠĠĠĠĠĠĠĠĠĠ
Ġpsy copg
fti rq
Ġs lave
======== =
ĠIn sert
čĊ ĠĠ
EXTEN SION
i or
Ġ[ _
02 8
Ġcontext lib
Ġne ighbor
38 3
UN IT
ĠAc cept
Ġb az
RE AL
Ġf os
ĠRe set
at able
ĠH ALF
ul p
VAL UES
le y
Ġand roid
ĠM any
Per iod
Sp in
t as
ra pping
ĠS IG
sn mp
ĠClo se
v cs
ri ding
res ubmit
the ses
sit ories
ĠĠĠĠĠĠĠĠĠĠĠĠĠĠĠĠĠĠĠĠĠĠĠĠĠĠĠĠĠĠĠĠ ĠĠ
Q Size
Pro ducer
G lyph
p as
S chedule
ĠL ock
ĠP DF
Ġannot ations
Ġ'? '
Un ion
37 2
'^ \
R D
h l
ç Ľ
ra ined
Ġtrans lations
N orm
bu st
E AR
right ness
CO URSE
ĠPo ol
Sl ug
_ ]*
av en
te e
COMPL ETE
] ]],
o ct
De precationWarning
Ne gative
F o
Ġne ither
el astic
ĠC ED
ĊĠĠĠĠĠĠĠĠĠĠĠĠ ĊĠĠĠ
C ost
R pc
sh ards
Ġlate x
Ġtri ggered
L j
b lit
ht m
pre fetch
EN O
Ðµ Ð
Ġinterpre t
Ġ9 6
glob s
åį ķ
? ",
ns wer
B IND
M ay
(" '
ta cac
bo ost
34 1
cre dential
sm tp
Ġg uid
cur dir
na vi
: #
P en
OP ER
Ġgen e
JzKet Coupled
89 1
Ġtra ffic
"> '
Ġca ught
PRO GRAM
gu ard
/ _
Ġas ynchronous
ĠCED ILLA
ĠS DK
Ġres olver
cmd line
Dis pose
Repo sitory
index er
login dent
B lue
() ],
so ftware
Ġens ures
ĠDetail s
+ (
P DU
f st
assert Less
ĠMis sing
Ġs rid
ense mble
report s
ĠTe mple
. ),
Ġf u
ul ing
Ġme ss
MULT IL
e ction
=' .
33 1
CO DES
Ġq gis
Y ES
r sp
Ġof p
args pec
exp anded
000 5
Ġcriteri a
ce ed
Int ToType
ĠTo ol
--+ --+
vi al
mark down
ĠC RE
pie ces
read s
Ġfloat s
win reg
! '),
cen ters
; ;
d td
er ing
inal ity
ĠPack age
Ġnew er
59 4
- '
den sity
56 5
Ġ'. '.
00000000 0000
Ġ02 111
9 49
P ING
pro posed
cap ital
Ġsup press
tag ged
vari ants
Ġc ube
de crypt
Ġ" </
ur able
Ġwh atever
Ġsub type
button s
ul ong
ĠW indow
Ġco hort
cen tile
rup ted
Ġ( ``
BO X
Ġplay book
Top ology
b roken
TypeId Value
Ġn u
ATEG ORY
Ġf ine
36 1
YY YY
ENABLE D
Ġraw data
Ġco lour
graph ics
ĠZ ero
ĠVi deo
([^ "]
Cl asses
re use
Re pr
add Test
SE CON
ĠGL uint
POS ITION
p andas
Ġg f
fl ask
x or
55 5
Ġform ula
Ġref ers
Ġstyle s
Random State
pixel s
Ġscen ario
Den ied
celer ated
Y ear
tra il
Ġ" |
is cal
Ġex am
O ri
cal ib
ins n
H a
R EST
re lations
Ġnet app
pol ys
OLD ER
Ġtermin ated
bs d
ĠAdd s
Ġremain der
Ġre fs
ĠC SS
Ġ3 600
expect ations
tacac s
E mulation
Ġd uplicates
tr ust
ĠL en
Co lour
nat ural
Ġal g
ep silon
fail s
an cing
Ġs id
89 2
Ġbutton s
b ine
in cluding
start ing
4 05
æ Ŀ
col l
50 3
struct ured
x r
Ġd u
Ġro utes
Ġemp loyee
Ġ ################################################################
ANCE L
lo cs
Ġde que
ĠIn clude
Ġover flow
indic ator
) [-
M aterial
e qu
56 0
87 0
gen der
Choice Field
l db
Ġin structions
per form
ren gth
Ġsim ulator
ffff ffff
iet f
f ed
ĠG DAL
Ġinter vals
Service s
Ġweb kit
tivi ties
LAR GE
l ms
ET A
Ġtrans actions
Ġrep lacing
Ġt witter
multip lier
j vm
Ġen force
air flow
c rop
mp loyee
auto escape
J P
s ch
Ġcomb inations
ĠHE BREW
Ġs ingular
Test Loader
ĠMe mory
Ġeff ective
S AMPLE
SE PARATOR
=' <
ĠM D
sin h
pectr al
M gt
Ġg dal
49 67
Ġiden tified
reach able
Re cv
74 4
(? :\
Ġuti lities
shop ping
Ġnot ation
80 80
Ġne ighbors
author ization
Ġpys park
. ".
F ER
b rew
in sensitive
Ġg p
app lications
ĠD OT
attach ments
= .
(" .")
32 2
te in
Re actor
ĠM IN
OB J
j ax
aris ons
Ġboot strap
ot ing
Ġvi sited
Ġexp lo
ĠCONF IG
* /
Ġa f
assert Num
sc si
AN K
size i
Ġclass name
Ġsa mpling
ĠComp any
éĩ ĳ
spa cing
birth day
Ġs phinx
84 7
Ġobtain ed
HAND LE
ten ces
86 3
utor ial
88 5
ome tric
Rep orter
c data
nt p
IT CH
replace ment
ĠE st
59 8
][ -
ji ang
A u
S CO
ĠW arning
IC ON
ĠUn iversity
Trace back
Ġleg end
h c
z ie
ul us
tra iling
ĠP ay
UUUU UUUU
ĠAP Is
alax y
T ip
Ġma gn
Ġget ter
blue print
Conf lict
ĠDele ting
W arnings
ti ca
ass o
Ġsh ip
SUPPORT ED
Ġ[' %
Ġ[] ))
Org anization
n args
Ġl df
Ġarch itecture
Ġpur chase
Ġa i
ĠT BinaryProtocol
failure Exception
S can
Model Form
( ')
) </
inter mediate
Ġspec s
INST ALLED
Wor ld
pro be
ĠVER SION
7 00
B EGIN
Ã £
Ġm illi
Ġ(' (?
Ġfn match
Ġde coding
Not Set
Dis position
Ġout come
EN GINE
An imation
coeff s
58 5
P ending
ĠUn ion
SE ARCH
Ġexport Literal
aff inity
L F
de lim
ĠF ire
Ġby ref
n v
te ch
74 9
sp rite
Service Flow
mut ations
Decimal Field
POLIC Y
å ĩ
Ġv pn
ĠB L
tribu tion
Ġmock er
D LL
p ys
Ġp seudo
Ġch an
57 0
x o
Ġany way
88 7
Ġmatch er
W rap
Ġ ent
in ode
in coming
ĠAuth entication
ĠLog ger
Ġ9 7
n om
ap pa
ĠRe p
Un der
Ġ ë
pop ulation
Ġc gi
ĠB utton
exp rs
iter keys
tensor flow
Cla use
x ception
get state
ĠF E
ĠV AR
ph an
Ġcontin uation
S ibling
ĠT ar
ĠA BO
' {
pop up
associ ate
G uest
Ġ) /
err msg
=[ [
BO OL
p asses
Ġel lip
28 3
Number Of
Main Window
Redirect s
Pcap File
C ar
de sired
IM ARY
({ },
Reg ular
or i
un ame
Ġver b
84 4
var name
ĠOR DER
[^ \
ĠNa N
ĠUser Factory
Ġdat atype
P ixmap
gra ding
Comp are
Build File
ĠCho ice
ĠABO VE
} ;\
fi sh
raw ler
REM OTE
6 07
() ")
stri b
CH ANGE
Comp any
PO WER
Ra dio
cl ang
cen tral
Ġskip ping
question s
Allow ed
ĠC HE
Ġg a
Match er
Ġ2 50
VER BOSE
Ġlook ahead
Ġcon tract
ĠPl atform
z i
at an
di vide
mon ic
Update s
num s
Ġgr ant
C ateg
Ġo bs
Ġop ener
prefix len
] `
v y
v ms
Ġl c
Di ag
, ):
Ġ9 8
suffix es
P ID
(' >
ĠH A
ĠH ash
Ġ9 5
TH READ
ĠSimple Transform
TraceSource Information
H i
Ġ' )'
Ġmut ually
Ġre lations
.* ',
Ġ" ('
4 69
04 40
f lip
list ing
Ġprint ing
go al
Ġpro ber
Ġthere fore
v server
ac cepted
'[ ^
COL UM
37 1
factor s
Ġth resh
it ors
à¤ ¸
Ġconven tion
IDDLE WARE
de ep
Stream Reader
contain ing
84 6
match er
" ^
< >
C ached
i red
Ġh r
prot otype
o i
ch oose
str s
art beat
Ġ rid
ĠT urn
Re ason
Ġper sistent
Ġregion s
G TEST
} /{
se crets
ar tifact
Ġk m
77 8
(' !
ĠPro perty
certificate s
ĠMet adata
pri mitive
Time Value
Struct End
Struct Begin
7 69
99 0
decode d
h b
ST ORE
N B
ĠV ol
At End
Ġend points
Ġeas ily
s ales
Ġs uc
ĠC ircuit
Ġsen ds
e red
Ġlo cated
abo ve
Ġin ject
Ġgra de
O c
\ -
e fs
in er
CO PY
Ġrecur sion
Power System
Ġs rs
Al pha
Ġdesc r
Ġtitle s
Ġas yncio
read Field
En g
ĠName d
Str ategy
re te
assert List
Ġ6 2
disk s
Ġke pt
DISABLE D
Ġsta mp
MO VE
f atal
lic ated
HO W
se quential
Ġde tailed
Def ine
Ġproc urement
M u
od d
M EN
t ur
Ġdatabase s
6 06
I m
ver sal
Ġinter section
Ġpacket bb
Ġdecor ated
4 67
Ġe th
Ġtest case
sub module
ĠAd ded
to wn
(" __
Ġcol li
Ġrep lica
TH AN
CHO ICES
M N
abcdef gh
W l
w m
Ġ" "),
ol y
ĠI Python
38 2
Callback Value
Ġ] :
k k
Ġ= ================
ut ures
Pbb Address
Ġg rouped
start Tag
86 1
Ġpri v
H Y
', )),
ver ification
ĠL eg
man agers
EST AMP
ĠFe ed
B J
28 1
bar s
amb da
ĠF igure
ag ger
gre SQL
ĠAss ume
V ars
ĠA D
Request s
Comp o
track s
Ġsw ift
Tri gger
ĠFa iled
1 999
Ġc i
ĠP ut
Di rect
ĠControl ler
Un defined
44 3
09 4
Ġkw ds
Http Response
ol ate
check equal
Ġj ar
Run s
dicate s
ore an
go v
pol ygon
ĠTH REE
Ġb ank
54 4
Ã£ o
r ml
Ġg ap
bo m
88 4
Ġin place
v at
Ġimport ing
04 38
arg o
c uda
db g
proto c
to lerance
Ġun supported
EN CODING
) ()
Ġin cremental
Ġver ified
Ġpre pared
29 1
Des cri
Ġair flow
å ¹
no thing
Ġt rial
un ted
CHAR S
Ġpercent age
Ġf f
Ġin struction
Ġe vt
ĠB U
ĠH igh
Lo gs
wri tes
mk s
Ġdesc end
O ID
Ġcre dential
Ġ}} '
expi red
+ -
T tl
pe ar
27 1
F amily
Ġi dentifi
ĠF etch
02 2
rep l
velo city
mpo tent
E QUAL
Ġa mb
Ġd ct
uti lities
Ġindex ing
87 2
mac ros
We ight
Ġc type
vi m
ĠA CC
our s
mo bility
keys pace
y u
Ġde velopment
=" +
36 2
loader s
Ġsym metric
Ch art
66 5
open source
null able
pro ducer
Ġm c
sc anner
Ġal bum
sur rogate
p lit
Con nected
arg max
Di ffe
Ġindic ator
ĠG rid
DE C
Ġplan e
candidate s
Ġo o
con firmed
ĠS m
L ight
Ġpar titions
soft max
ĠPa rent
T ube
è Ģ
PO SIX
fin es
ĠEn ter
âĸ Ī
O LE
or acle
get Name
Ġlo s
ĠE dit
b ash
sk in
Call able
O ld
Ġ8 5
MON TH
86 2
let ters
Ġtri ed
29 3
UP LOAD
Token s
={} ):
Ġ ĊĠ
MO DI
Ġpop ulation
ĠField s
S INGLE
Î ¹
ĠB EGIN
PO LL
ĠIN T
ĠLo gin
st ored
django apps
Aggregate Iterator
Ġversion changed
AS SI
DIRECT ORY
ierarch ical
Ġdiv mod
ì Ŀ
mat plotlib
char ge
Frame work
assert Dict
ĠF IL
ich Text
tro op
59 5
ticip ant
ĠC SR
28 2
(': ',
O ps
too th
ĠCl uster
el ap
88 3
Ġtemp or
0 55
Ġar tist
Ġpop ulated
Build ing
urm ur
assertNum Queries
H ard
me rs
Ġt aking
Pro blem
Ġvalid ated
Bit map
Ġf ocus
icon s
c make
s ynchron
Ġsign ificant
Ġroll back
te ts
Ġt up
ĊĊ ĊĊĠĠĠ
ren d
start up
by e
Pre processor
PL UG
Ġg t
ĠL ike
Get Instance
Ġcomp ound
til de
As sembly
mar ize
T W
Ġre li
() "
ĠE val
}: {
SIGN AL
ref count
74 2
assertRaises Regex
L ate
bu dget
map ho
ĠCO MP
DOT ALL
ç ¼
pa lette
IT LE
split s
Ġh ello
([ \
Ġur lencode
I o
c map
el lip
OR ITY
char acters
sen se
Ġst ation
ĠGL int
P HA
ci a
url resolvers
om aly
ĠB IG
gra ds
__ "
ĠP lay
ĠSh ape
hard ware
u ator
pe x
ĠPer iod
Ġfolder s
th umb
Ġan onymous
de clare
le ts
Ġjoin ed
proj ection
y o
proto cols
ver ted
ĠA CL
99 2
19 51
Option Error
ĠRO OT
Ġv c
Ġon delete
Test Data
Stream Writer
Wh itespace
R ATE
le aves
pa id
DO CTYPE
sa mp
coun ters
Back up
h ub
h orizon
ĠT WO
ĠOF P
79 8
ĠPAR AM
H V
R B
ĠP ick
01 00
æī Ģ
b ench
Ġun ix
ĠW R
ĠV owel
LOC ATION
Ġsur vey
Email Field
ĠS ci
ĠF ull
`` )
App ly
Ġdisc ussion
con tiguous
duce d
SEQU ENCE
p aste
Ġf g
Ġex ponent
ĠE MPTY
S IM
(' @
Ġlo cate
ĠM a
Sy m
h its
q r
s queeze
Ġw imax
ĠA v
ĠGa ffer
AT ES
Ġpre fer
ud ge
Ġb c
Ġ. /
Ġdata center
']) ),
J y
t ap
ke h
value d
Ġequal ity
Align ment
he at
ne arest
Ġk v
cr t
DO C
> '],
b roker
n th
de cision
at ty
pk gs
ik o
Sy ntax
micro second
Ġspeci fier
Ġexp orted
Ġcre dit
Ġhead ing
PRO FILE
J s
test dir
Ġas c
)] ),
v oucher
ds dv
Ġpr inter
Capt ure
ce dence
Ġd r
00 04
ST M
view er
Wri ting
s andbox
ir ing
Sta mp
Av g
Ġ(' %
face book
poly morphic
66 8
ĠSER VICE
ta u
spec tive
) },
D ash
vo tes
MULTIL INE
get Current
ges ted
èµ Ħ
F ault
ĠS w
Ġexpi re
ho le
'. "
graph s
assertList Equal
q q
ot s
)) ;
cor outine
ler ts
for ge
ĠP I
ĠQ Q
cyg win
Ġn av
Ab ort
3 12
S pectrum
Ġ ten
ten sity
vo ices
ĠZ ip
VOL UME
nup lot
elap sed
w ildcard
Data Source
XY Z
to String
Ġde cay
Ġ(? :
W D
Ġo dd
vi con
Ġsh lex
ak ed
Incremental Decoder
ĠFl ask
Ġpre ference
38 1
ĠSe cond
gre y
e ss
54 7
Ġgener ally
Ġh older
77 77
fici al
S heet
ç ®
Tag Data
TER M
OS Error
: ]))
o le
ĠS ort
Ġas n
uplic ated
g able
Ġs light
Ġlin alg
lect ron
= (),
N I
Ġre sidual
ĠT rain
Ġle aves
C ES
Ġ} ;
over lap
ĊĊĉĉ ĉ
Defini tions
F lavor
Ġs anity
og enerated
cor r
Ġcopy ing
Ġqu ad
month s
Ġ' ('
sub st
place ment
& ',
g au
Ġn m
Exec utor
ti s
xxxxxxxx xxxxxxxx
rep licas
Ġdetermin es
ti mal
Ġcon caten
stri des
Al ready
Dis connect
de b
ĠAl ways
N X
č ĊĠĠĠĠĠĠĠĠĠ
do o
ĠRE AD
An notation
Page d
Ġcid r
02 3
cre ase
Ġre duction
Ġor ientation
For Device
ĠCh rome
Ġconven ience
Q uestion
k r
cor pus
. :
S m
W X
Ac celerated
year ly
Speci fic
un set
Ġdiag onal
M b
S ql
k f
Ġw ildcard
58 3
ĠM ar
Ġl u
ĠSP ACE
M er
form ula
B lob
h en
mp eg
Ġan sw
åĲ Ī
' *
T BinaryProtocol
Ġref lect
Ġlookup s
Ġblue print
74 83
categor ical
INST ALL
le ading
ul ative
Ġ1 10
ap prox
out s
ĠN um
Ġmake file
Ġide a
s vm
index ed
Ġtr ust
c z
ass oc
tra cer
ĠTk inter
$ \
W SGI
', ))
bu ff
Ġcor pus
distribu ted
contrib utor
Ġpa use
mark ers
Exception s
IMP LICIT
T urn
if e
ĠN ext
ren dered
Ġbound ing
Ren ame
expi ry
db c
do f
copi es
RO UND
The me
ĠP ipe
top o
C ells
ĠT wo
ĊĠĠĠĠĠĠĠĠĠĠĠĠĠĠĠĠĠĠĠĠĠĠĠĠĠĠĠĠĠĠĠĠĠĠĠĠĠĠĠĠĠĠĠĠĠĠĠĠ ĠĠĠĠĠĠĠĠĠĠĠĠĠ
Ġbyte code
in active
re ject
sub titles
55 0
35 1
000 3
Lay ers
Ð¸ Ð
Ġdump s
Ġtr uth
s ke
M ul
à¤ ¯
ĠPol y
Ġ[ {"
ĠL ab
ĊĠĠĠĠ Ċ
Ġest ablish
tar info
: <
et o
uti lity
sys log
Ġexten ds
attemp t
ĠT itle
Or deredDict
IBUT ES
Ġb gp
Ġam ong
exp ense
sel ves
æĪ Ĳ
de cay
() )))
qu er
TOOL SET
op f
Ra ised
Ġdisc ard
branch es
L AY
Ġf ault
Ġlat in
raw transaction
LA ST
am big
!!!!!!!! !!!!!!!!
Ġpro duces
ĠW idget
End Tag
compo site
mo s
23 12
IFI ER
J i
S uch
e u
un changed
Ġst oring
ht t
ĠM ore
Ġ` (
Ġac quire
ĠFile s
Ġ der
ĠM ichael
Sur face
m ol
Ġstr ong
Command Line
ĠAs sign
a con
pro vided
Ġsub mitted
xis tent
D on
k ana
List Entry
Ġz oom
Y X
Ġra x
AND ARD
Pro be
cor der
k ivy
Ġc art
An gle
K I
), )
the ader
handle s
vis ual
Ġconsume d
e es
Ġa e
Ġgener ators
Ġserial ization
Ġmac ros
Ġaff ected
in omial
EX PECT
SC SI
39 1
7 06
Ñ Į
ip h
84 5
============ ===
, )),
p itch
Ġre dis
group by
V ol
ct ree
exp lo
ar ter
Ġnormal ization
Link s
ĠCall able
F ast
Z IP
ĠL D
Di vision
IM AL
54 5
ĠGu ang
LIBR ARY
Ġ[" -
Al t
Default s
, _
d Value
å ¿
the re
Ġmock ed
Ġtrans pose
un ge
si der
GetInstance TypeId
M AT
j am
99 3
ĠCRE ATE
c sc
or ientation
Ġun link
Ġ{} ))
Per missions
Ġbal ancer
Cap abilities
74 5
ĠPre pare
ĠExec ute
0 64
in ite
Ġpro pagation
und ant
ST ACK
Di rection
Incremental Encoder
Ġ6 1
' |
d z
Ġte l
Ġsee m
Message End
ĠRE QU
C ity
C ustomer
Ġra ising
29 2
Ġs ick
Ġtrain able
" <
u u
ĠT IME
head s
t up
Ġsuper class
Ġg ate
57 3
PER F
Com bin
micro soft
AB LES
Argument Error
it ored
Ġch apter
sing ular
à¤ ¹
inst aller
Ġ( .
Ġh is
ver b
Dir s
k mi
pre serve
54 8
ĠIN DEX
quot as
M IME
m rp
ENC Y
re la
de termin
I den
} -
ĠIn formation
ĠGener ated
d bus
'' .
Ġsh or
Ġlib cloud
iso format
TERN AL
len ce
PAT CH
Ġmeta class
ATTRIB UTE
? )
m h
ĠT wisted
ĠS ur
Ġbuf size
in ge
st h
Ġv ary
stat uses
requen cies
ĠINTE GER
é Ļ
ä¸ Ń
RandomVariable Stream
L T
me ss
Ġi mmutable
P eek
Ġcap ital
F P
c url
w r
Ġa pache
at tached
Ġre ject
ĠC R
dd l
Sto ck
dm f
` ."""
I ssue
D ig
f bd
æ į
Ġin complete
S ink
Ġd ll
ĠQt Widgets
F LOW
=' \
start s
im db
Ġcorrespon d
g db
r df
Ġre cipe
Ġsome one
Ï Ħ
sc p
Ġ4 096
den ominator
Sup p
prox ies
. """,
æ Ķ
ĠGa ussian
ĠBeautiful Soup
Ġansw ers
C rypto
Ġpar ty
57 1
Ġ'{ "
ĠNetwork s
isc si
( .*?
M ouse
il le
sc m
rep lication
Ġfeed back
V irt
ub ric
ĠUP DATE
L arge
': ('
ls r
ĠE QUAL
rate s
pol ling
Ġ"- "
q z
r h
() \
Ġcon cat
ĠG UI
C atalog
Ġo ct
Ġ0 1
red hat
Text ure
Ġfl t
tr uth
speci es
Ġsupp ly
altern ate
B ra
Ġ" ''
Ġne arest
matic ally
ĠACC ENT
Ġs z
LE ASE
pub key
T ASK
ke mon
Ġ& ,
æ Ģ
in side
Ġs lices
mapho re
get Value
Sub mit
G U
u j
Ġb om
ve stor
UN C
Ġbox es
Ġm utable
Ġw iki
Ġfind ing
invalid ate
ĠVariable s
Ġth rift
un able
ĠC AR
Ġas sets
C ols
av id
site map
ĠB atch
ug ate
LOG IN
SC AL
prob ability
): \
set state
Met rics
ĠQgs Processing
Pay load
Ġdash board
w ater
Ġ(' *.
EX IT
Ġ'/ ',
ObjectFactory Value
Ġlo ops
VER S
============ ==
Ġun iv
Ġcomp uting
Ġk ivy
vile ge
% .
h ive
Th at
Ġinte ract
M IC
Ar row
jac ent
la de
67 8
C AD
D J
node Value
44 8
Ġqu it
æĹ ¥
out box
Ġ7 1
ĠSt udent
Ġmat ter
Ġpol ygon
vi z
app lied
Ġlog file
UN T
pre fs
dir path
cur s
sub scriber
55 9
priv acy
; ",
Ġin et
Ġlink er
Ġcom ing
N AL
d ro
Ġtrans parent
Ġallow ing
Ġwri table
Ġb old
tic ally
ĠCh annel
F lat
í ķ
Ġend for
G MT
O GR
Ġ Keys
ti g
ot os
Ġthem selves
Ġc x
ĠA BC
mo ment
ĠRe mote
Ġfinal ize
sib ling
O riginal
fa ction
ld p
Ġign oring
Ġreport ing
8613 6
rou ters
onom y
supp lier
G a
w agtail
tra ffic
Ġtele metry
sh p
ĠJ inja
listen ers
TBinaryProtocol Accelerated
Ġc um
(( ?
RUN NING
S leep
right s
forma tions
Ġmonkey patch
F ocus
vi sed
Ġme dian
lide an
ITER AL
Slug Field
G OO
f riendly
Ġ] ),
Ġre cogn
ur ator
Ġinstanti ate
re late
ul ty
Config ure
Ġsp rite
i ous
Ġc xx
Ġw f
Ġun able
ati vely
Do Dispose
Trace Helper
Ascii TraceHelper
Ġguarante ed
m ro
temp file
Ġ%} {{
es ter
Ġpro ducer
Ġper ms
book mark
Ġrespec tively
py pi
ĊĊĊĊ ĊĊĊĊ
C r
ĠG P
Ġbranch es
gui de
C ENT
ALLOW ED
$ "
Ġ' ~
Ġin ference
In f
Ġal ter
RE PORT
Ġtra iler
make pyfile
INTER VAL
g us
AL SE
gr ant
URL Field
="" ):
C UST
D id
S ent
ca mpaign
87 1
Ġmark s
('. /
st ory
Ġwas n
. '.
Ġret code
sa mpling
AVAIL ABLE
si cs
ĠE d
59 3
sup press
Ġperiod s
F IN
Ġ# '
price list
grity Error
C lock
ĠĠĠĠĠĠĠĠĠĠĠĠĠĠĠĠ ĠĠĠĠĠĠĠĠĠĠĠĠĠĠ
bu ffers
Ġpro files
ufa cture
Ġcriteri on
Co untry
Check sum
G F
h aps
ĠU tils
Ġtop ics
Ġyear s
A verage
M X
V m
b dist
m utable
cy rillic
Ġoper ating
Ġa Buf
Ġs tem
ĠR ET
ĠDES CRIPT
us b
Par sing
ĠAt temp
Ġ que
ĠT akes
Ġres ol
ug gested
diff s
chain s
E Q
j k
k ubernetes
Ġe mul
ĠM EDI
org anisation
plain text
ENS IONS
h unk
Ġne ar
87 3
modi fiers
in string
TR AN
KEY S
Ġas pect
04 32
ick ness
lookup s
database s
Ġsn ippet
= _(
D ET
k ing
Î ½
Ñ ĭ
Ġh s
ĠC S
ĠDe ferred
WAR N
mime type
Ġlar gest
as sessment
Ġbe am
For bidden
Ġdraw ing
in tent
UD P
L ive
U INT
ord inal
Ġconv olution
SOCK ET
lic ing
Ġlength s
Ġfor wards
assert Redirects
STOR AGE
Ġn om
short cuts
Ġmail box
ĠFunction s
dd dd
Pro vides
ĠJ an
Ġdispatch er
Ġdi ms
pre ferred
[^ >
alph as
Ġf resh
Ġdrop ped
ele ms
' ')
ĠD istributed
Ġ(' \
pa int
Ġcapt ured
W AY
CON N
Bind ing
Combo Box
C lip
v di
08 5
ĠDoc Test
od oc
=[ (
Prefix Value
a es
c up
__ ']
out come
Mask Value
ĠMark up
U tility
li g
ĠT rack
Ġun iversal
ET YPE
VO ID
f ld
à¤ ®
Ġexpect ation
teri or
Ġvocab ulary
Ġg arbage
AT GG
9 00
(' {}
fa vor
File System
Ġshort cut
Cre ator
ĠS OL
Ġ'- ',
Get S
Work flow
Ġh orizontal
Tra de
ti facts
Ġex planation
rec id
google apis
ĠDis able
Ġco uple
ĠM ost
be havior
56 1
3 11
C isco
G l
c lic
Ġsearch ed
Ġinstanti ated
B ug
Ġc he
Ġd m
ĠS W
tr usted
ail y
Ġcustom ize
total s
Ġsimp li
č ĊĠĠĠĠĠĠĠĠĠĠĠĠ
ĠC allback
gra der
PE G
Ġte ardown
Ġsa ver
ĠPol ygon
Ġdisp lays
Pipe line
EN UM
ens ors
r at
Ġf la
ĠA SS
Ġconsi st
T GG
Ġ tester
in herited
Ġc Pickle
Ġh olding
=' _
======== ==
IM PORT
# @
V V
ph en
gin ary
ĠM ask
Ġkw arg
comb ined
O ct
ab y
ĠC C
i B
i lf
le ton
ist ra
ĠV LAN
74 7
ãĤ Ĵ
Ġd w
ca ches
xml rpc
Ġsign atures
INTER FACE
Ġms gs
co uple
os pace
Ġdisk s
ingu ish
en ame
bu ffered
Analy zer
Fr ont
@ _
GL uint
Qu ota
C ENTER
debug ger
A Z
b io
Ġr r
Ġme as
). "
set Attribute
ĠS cal
GL X
vm ops
zz le
************************************************************************ ***
H IGH
Ġsim ulation
TAG S
æ Ń
base string
ur g
Ġreturn code
Ġg olden
ĠAUTH OR
r ant
ĠRe present
ĊĠĠĠĠ ĊĠĠĠĠĊĠĠĠ
ĠContrib utor
ç¼ ĸ
Ġen dian
Ġdis connect
Ġ4 29
Ġtar ball
edi ted
Uan Phy
Ġ' (?
Ġe ol
ĠRe lease
fil led
Ġ"' %
ĠOr dered
ĠBo th
Ġfind s
SG IX
ĠMethod s
ĠCHE CK
V I
ur is
00 10
Ġsepar ators
Ġal located
ĠChar acter
Ġtrun cated
=" %(
Ġrep orter
ĠRun queue
L R
y ond
ma le
tra its
ĠAl tern
ãĥ ¼
Ġtor rent
B K
p late
à¤ ¤
SV C
j it
pre process
pos ure
Request Context
ĠEn tity
INTER NAL
ĠES CAPE
A re
m ate
ĠW here
55 8
Time s
W HERE
ĠP F
ten tially
iter tools
Server Error
Cho oser
j d
in h
mt u
Start Tag
P AY
t g
In struction
'' ''
74 0
Ġcor ner
Ġfactor s
DESCRIPT ION
K F
M utable
c utoff
Ã ¼
Ú ©
ĠS witch
Ġname dtype
mod al
KEY WORD
TX T
! ",
put ln
74 6
wer kzeug
ĠBO M
mks temp
! --
] ]))
Ġin structor
Ġx m
block ed
sen tence
ĠMo zilla
Conver ts
u ge
Ġpre served
G NU
lf ormed
ab et
De leted
59 1
De claration
Ġloc ally
times heet
g am
i am
Ġun ichr
ĊĠĠĠĠĠĠĠĠĠĠĠĠĠĠĠĠĠĠĠĠĠĠĠĠĠĠĠĠĠĠĠĠĠĠĠĠĠĠĠĠĠĠĠĠĠĠĠĠ ĠĠĠĠĠĠĠĠĠĠĠĠĠĠĠ
course ware
A AG
S yn
é ĵ
Ġ' ),
MO CK
fici ency
D M
de scriptors
Ġ( %(
Ġcon sistency
url join
err ing
Byte Size
Ġp open
us si
58 2
fl u
ĠTemplate SyntaxError
Document ation
09 8
rout ine
ĠS ocket
mo ke
Speci fy
ĠRen der
data center
ang o
IPS IS
Page s
N R
n es
Ġ%} '})
again st
el b
Ġti cks
| \\
Ġr f
Ġpro cedure
db se
Ġredirect s
get block
Ġgroup ing
alle ry
shopping cart
AT TT
09 7
--- \
Ġbind ings
D er
Al location
Ġact s
R sp
æ İ
con tour
ps y
ob ot
ship ping
57 2
an nounce
ĠS creen
PL ATFORM
Ġinte gr
# ------------------------------------------------
Le v
Ne ed
H o
n am
ĠS pa
ĠD raw
54 0
ĠJo hn
Ent ries
re me
ap ing
Ġpro tected
ild cards
GL enum
ĠSC SI
ĠComponent s
d ri
Import Error
Multicast Route
k top
as sembly
get pid
Ġst able
Ġde precation
ari os
big ip
C MS
G DAL
i mmutable
ä ¹
Ġ 89
si p
(' '.
il s
Ġde tector
path sep
rer ror
Ġrespon sible
L ower
t body
ä ¼
os ted
ENS OR
oose Version
X dmf
v out
ĠS te
Ġ[' *.
G UID
") ],
CH ANG
SCH EM
Ġt type
(( ('
ĠCourse Factory
Ġf out
Ġre named
los ses
Ġv oucher
position al
Br ush
f unctools
Ġst icky
Ġstep per
eng lish
DATAB ASE
st on
Ġc utoff
Ġv l
ON ENT
src dir
Ġmsg id
Ġmodi fier
auto commit
BO UND
d yn
| [
re y
local context
ĠF il
Write U
live red
} </
Ġla g
'[? ]
Ġbu ff
=[ ]):
Float ing
is abs
ĠSup er
Ġsick beard
M ixed
_ ][
mp p
77 0
Ġclo sure
cla im
Dimen sion
N MP
ĠĠĠĠĠĠĠĠĠĠĠĠĠĠĠĠ ĠĠĠĠĠĠĠĠĠĠĠĠ
Ġr ho
Ġac cessible
.* \
conver ters
measure ment
ĠCAR ON
Ġf avor
Ġthe mes
ĠT AB
que t
pre amble
200 3
moved In
student s
deri v
Ġsca led
g un
Ġs af
con tra
ne cessary
ject ory
ED IT
HE LP
Per cent
imp orted
ti lities
up pet
Re quested
dd y
At trib
mark ed
LIC ATION
N CH
j unk
ri or
full path
Ġbreak point
ha i
web driver
Require ment
4 326
b id
å Ĩ
Ġn dim
build ing
drop out
ĠOper ation
ĠDown load
ar a
Ċĉ Ġ
Callback s
Ġo me
Read y
Ġsucce ed
d ual
Ġif f
Ġout line
analy zer
un lock
ok ing
Simple TestCase
Template s
UFF LED
ĠD AT
Struct Block
restri cted
initi ator
B i
q m
Ad just
PARAM S
] .__
ĠF raction
Module s
nx os
T MP
la m
ĠO b
Ġpa lette
Ġal arm
ST EP
Bo ot
Ġc ircle
ĠS ol
Ġ+ \
ĠDe precated
00000000 000000
Ġwrapper s
ĠModule Store
ĠĠĠĠĠĠĠĠĠĠĠĠĠĠĠĠĠĠĠĠĠĠĠĠĠĠĠĠĠĠĠĠĠĠĠĠĠĠĠĠĠĠĠĠĠĠĠĠĠĠĠĠĠĠĠĠĠĠĠĠĠĠĠĠ ĠĠĠĠĠĠĠĠ
SCO PE
al ic
min i
ĠJ S
Ġass uming
ĠCol lection
MIN US
_ \
Ġm ongo
Ġwebkit py
Ċ ĊĠĠĠĠĠĠĠĠĠĠĠĠĠĠĠĠĠĠĠĠĠĠĠĠĠĠĠ
05 8
State s
Ġrecur se
u ations
SH IFT
Ġcach es
E V
Ġh g
Coordin ate
W all
è ¦
Ġf ingerprint
Pre vious
################################################################ ######
Ġslight ly
f riends
Ġus able
comb inations
ĠM ail
ac cent
ĠDi ffe
Ġsilent ly
no tifier
Ġprovider s
ĠRo le
Ġaltern ate
3 10
Ġal gorithms
)] ],
Ġtri p
Exec utable
Ġvisit or
Ġliter als
Ġstand alone
st ick
Normal RandomVariable
#---------------------------------------------------------------- -------------
Ġpor tion
frag ments
= ?
ĠT ho
gra des
Ġ8 2
Ġaut ospec
Fil ters
Ġre cognized
ĠS cen
Ĺ ãģ
Ġsign ing
PACK ET
Ġ#@ -
P ub
T HE
f rontend
pre ferences
ump tions
trans lated
RES ET
yg ons
FE ED
Ġhint s
z o
ata kana
ile stone
FFFF FFFF
EXEC UT
S patial
w file
Ġte chn
44 4
SW ITCH
Ġc rc
Ġp ants
ER IC
Ch rome
post s
Down loading
St udent
Ġ''' \
Bo th
Represent s
for d
out dir
Ġwork around
DB Feature
Ġs pider
ĠM UST
]+ )\
NotImplemented Error
+ '.
el s
Ġround ing
S Z
co ffset
late r
Ġca used
49 6
') ",
ac me
'' ',
TH RESH
ĠD rop
Ra ise
Ġsearch ing
zzzz zzzz
F Y
Ġar tifact
sh ader
Ġpar ame
Ċĉĉ Ċ
Ġwhen ever
GE O
Ġassign ments
ĠNUM BER
y lim
un bound
URL CONF
stand ing
Rect angle
on change
Ġ" ^
ĠP il
gin es
sy mpy
Ġf t
01 400
Ġbound aries
b asket
Ġm gr
(( -
Char To
Ġappro ach
ĠPo licy
s pectrum
Ġnamespace def
micro seconds
BACK END
ĠT ake
con tacts
Ġr df
loy ees
PK G
ĠGyp Error
Ġre strict
Re quires
Ġlong itude
FOR E
modi fier
success ful
Ġr fc
Ġseparate ly
Ġf ft
str ate
oc tet
54 6
FA CT
DB G
ATTR IBUTES
ĠModule s
) (?
ĠPO SIX
Ġconnect ing
IN CLUDE
Ġun do
ute x
tx n
ĠLo op
L u
s anitize
ne ver
Ġ[' ',
desc end
> &
ca pa
Gu ard
X D
un parse
Con sumer
im ates
i Lev
å ·
ff f
Ġcontext s
Par tial
ĊĠĠĠĠĠĠĠĠĠĠĠĠĠĠĠĠĠĠĠĠĠĠĠĠĠĠĠĠĠĠĠĠĠĠĠĠĠĠĠĠĠĠĠĠĠĠĠĠ ĠĠĠĠĠĠĠĠĠĠĠĠ
Instance s
READ ME
as df
Ġsub title
arch ar
56 3
Ġgra b
.', ),
O w
U i
Device s
mpo ol
int ro
ci ties
ĠCreate d
h id
Ġi pa
ĠI M
ind s
Ġpre pend
Routing Table
Ġ#@ +
Ġmeasure ment
TT hostFtdc
acti vated
CLO SE
S ales
Ġch rome
back ing
MEN U
H ide
(' *
ver ity
Ġbu gs
VIR T
)) ])
Dis c
Or More
Ġim db
Ġlicense d
Ġimplement ing
INST ANCE
åħ ¥
hyper visor
alo gs
Ġprefix ed
Machine State
ĠF lag
net conf
ĠTO KEN
ĠTrans action
di es
que ster
Ġ655 35
H ar
Ġp ing
Ġm ne
Ġh a
Ġdata Size
Ġ'" %
pur ge
C BC
d j
| .
Ġp f
data dir
ca ffe
Ñģ ÑĤ
Ġ" };\
66 3
06 9
('/ '):
Ġjoin s
ĠTime stamp
C op
S ca
s atis
ĠL iteral
UM ENT
B N
=' -
make Suite
ĠUn ique
Ġbreak s
gen s
Ġur lopen
ĠPY THON
ĠM enu
Test Model
Info Extractor
Ġclose st
F requency
Ġx mm
Call s
ĠSign al
] ._
Ġ' //
Ġv ir
pro tect
Ġq n
Ġ ~~~~~~~~~~~~~~~~
ĊĠĠĠĠĠĠĠĠĠĠĠĠĠĠĠĠĠĠĠĠĠĠĠĠĠĠĠĠĠĠĠĠĠĠĠĠĠĠĠĠĠĠĠĠĠĠĠĠ ĠĠĠĠĠĠĠĠĠĠĠĠĠĠ
Ġ$ @
Skip ping
In correct
Ġsh orter
Ġgra ds
Ġ"% -
Ġnext char
o spf
Ł ¥
Ġfile Name
ĠRe cur
Ġcol on
grid Layout
ap ted
Ġal locate
du ctions
Ġgraph s
yg win
b k
um ask
so ftirq
Ġdiffe ren
sha res
Ġa a
ĠT yp
Ġ\ "%
yy yy
recipient s
Visit or
0 37
U id
ar ith
and a
Ġme ant
Ġauth ority
asc time
D raft
ci fic
Sup press
H ow
Ġa ug
ĠP UT
Ġl l
d os
ĠN ET
EX PORT
Ġ'< %
204 8
B W
C en
Ï ģ
set Name
ET ED
Trace dValue
ĠJo iLev
capital ize
la pping
(" (
Ġget pass
Trans late
Work ing
Modi fy
band width
ur y
Ġr ating
pl oration
Text Input
extend able
fq dn
ĠO ct
Ġc rop
di g
ĠP K
Ġ linux
ff old
dist ro
narrow ing
static files
red dit
termin ated
mar shal
ĠSy ntax
ĠGeo IP
M K
Ġs ke
Add Field
Ġdoc utils
METHO DS
Ġaggreg ation
Sw ap
7 20
le e
88 1
CON NECTION
Ġreceiv ing
Oper and
Ġaut ogenerated
Ġleg al
z hou
ĠT AG
"] ],
ĠQuery Set
F ONT
), ))
OT HER
uuid s
ĠZ IP
reconc ile
ut ter
ĠH and
row n
Ġ ĊĊĠĠĠ
un register
Ġel t
Ġ[] :
99 1
lass o
= "")
ĠE very
Ġ& =
Ġschedule d
` _
ĠĠĠĠĠĠĠĠ ĊĠĠĠĠĠĠĠ
Ġu dp
mis s
MA KE
sym metric
Ġsen sitive
vl ans
C amera
Ġde sk
Ġ2 048
Ġport al
ri an
off line
year s
Ġance stor
Clo sing
or tions
ĠC annot
ha an
Ġside bar
Ø ³
SE EK
ref und
P ref
X code
t ornado
write line
S Q
s tem
un less
=" {
ari ate
67 9
EXT ENSIONS
comple ter
Ġs uggest
termin es
c ub
mp ify
Ġin compatible
Ġde viation
free ze
ĠSTAT US
ĠC y
ĠL ooseVersion
Ġepoch s
ĠD el
bad ge
STY LE
n def
t re
Ġh ot
Ġon line
ĠR SA
ST D
TR AIN
ĠS ensor
Re stri
ret val
Web Socket
? ')
Ġ( :
get attribute
test data
ĠU s
Trans lation
Imp orter
, .
b en
as sertion
In dices
ĠPro vider
Ġstream ing
ĠUse ful
Ġkeep dims
f am
Ġ` _
QU OTE
fort ran
èĢ ħ
le ader
co ol
Ġu a
Ġtrans forms
Ġmark down
Ġpur ge
K C
U l
ch ors
77 3
Res olution
Se quential
([' --
Ġconf licts
x lim
ĠRe quire
Gener ation
Start up
circ uit
": {"
AC GG
Ġ}} </
2 80
S Cons
de queue
(" ^
[" _
Ġ7 3
09 0
Ġequal s
ĠReg ular
", ),
ĠF ULL
from timestamp
ĠRe direct
so lid
over lay
Ġinst aller
Box Layout
h mac
Ġin fer
per sistent
clu sions
Di gest
ĠGL sizei
La unch
nick name
PI X
proc urement
sn ippet
ct r
Ġaccess ing
Protocol MessageType
ĠPri vate
dist s
ĠG B
AL PHA
EX TRA
tex info
Ġstudent s
ĠP ossible
us pended
ag ios
ĠsetUp Class
) [:
d uplicates
Ġe m
Ġ2 24
break s
K eep
M ath
S en
Ù ģ
is son
Ġpro grams
ĠB us
inter vals
train able
Ġmis c
Ġplain text
Ġke eps
R ound
__ ):
Ġconsi sts
? ")
G RA
P ad
Ġv t
is tence
ex tern
we ets
: \\
Ġtime d
Tra in
Tensor Shape
Ġquot ing
g ml
an c
ty pename
pa st
Ġg rp
ĠH andler
attr getter
lit ude
Vector Layer
ĠSign ature
Ġsmal lest
[ #
Ġp cap
vi p
ä» ·
Ġso lid
Ġmo x
Me asure
R P
ĠG PU
Get Output
ĠCo uld
DEL AY
__ ")
Ġde s
ĠM at
'} }
da ily
new doc
FORM ATION
Ðµ Ð½
S trict
en tr
Ġm gt
Ġper forms
ĠExtended Context
lo p
Ã ¨
en ume
Ġ` %
ĠTR AN
H P
CC G
BU IL
ĠRequest Factory
c red
r bd
Ġs al
URL Y
B IG
B enchmark
p si
fi scal
ĠX C
Ġfail ing
Ġequ ation
C OR
D ST
ĠG TEST
Ġcomp ilation
QU OT
Ġbucket s
vertical Layout
ĠC G
as pect
ĠF ixed
gl x
ĠSTR ING
Associ ation
) +"
f lavors
bo gus
Ġz ones
Un til
CR Y
Output s
S ound
d ont
Ġf iscal
==== ===
ĠD er
sv d
Parse Action
abcdefgh ij
g let
comm its
Inter faces
vocab ulary
ne e
55 6
ĠCon tact
No tes
ĠCommunic ations
li me
Ca lendar
ĠNE W
E cho
č ĊĠĠĠĠĠĠĠĠĠĠ
ot onic
ĠA gg
data State
Ġad vance
F ollow
Q ry
ir m
Ġhas n
inte rest
MIS SING
Ġaff inity
Ġde leg
ĠEx it
Ġjson utils
PER L
Ġdeclar ations
v b
Ġsubnet s
]) ):
Read able
| ,
Sh are
Ġdescription s
ĠC UR
Ġkey board
zip file
Def ined
Ġdeli very
Division Error
'] "
ĠM achine
Ġal location
reg ist
55 7
ĠApp end
H yper
is Valid
Ġ9 4
Ref resh
Ġpick led
IZ ED
Ġh d
Ġse mi
Ġun available
St and
... ]
rq s
:`~ .
>` _
Ġs u
ĠT ick
Ġset ter
Ġ[' /
Ġper iodic
ĠOUT PUT
ĠCho reo
PRIV ATE
= ':
L V
s ms
Ġin teraction
Ġb are
Ġd rv
end Tag
()) [
embed ded
A lert
W I
Ĥ º
Ġf lip
__ ``
> ']
th metic
AC L
ĠInter val
Ġflatten ed
get new
ĠH er
74 8
ĠFor ce
Ġsocket s
gl ance
Ġdynamic ally
VIS ION
Ġ{ !
ee e
75 2
rie ves
N d
\ ""
Ġcon tra
ati lity
ĠChange s
A mount
S pare
ĠP UB
Ġauthor ized
06 2
Ġmin im
Ġcon firmation
Ġby test
und les
Ġqui te
ĠSkip Test
Ġcen tral
b is
Ġre m
ic mp
Ġar row
čĊ čĊčĊĠĠĠ
ĠEx ternal
ven tion
dev s
Ġfunc s
Course Key
ĠPL US
de os
Ġcur s
uf unc
oo zie
of fice
EST ED
Bo ost
simple filter
Ab out
WH ITE
Generated ProtocolMessageType
ti les
ABC DEF
ĠF K
ANG O
0 25
ri st
assert Template
add Handler
ĠAN GLE
Ġbase line
tar ball
+ )/
Ġi v
si stant
Ġdi e
G uid
li ation
56 2
select able
éĵ ¶
Ġb f
ĠA tom
ĠPro gram
l bl
v x
58 1
Table s
ĠWeb Socket
e mb
Ġp u
queue s
He alth
ĠType s
Ġ---------------------------------------------------------------- ---------
packet s
M ix
ĠC rypto
Ġcl c
06 0
PRO PER
Graph ics
net scaler
dis cover
Additional Options
ĠOrg anization
PREC ATED
e li
t ml
u D
ĠS G
app y
ĠG en
Ġal most
fil t
Pre v
NetDevice Queue
('< %
Ġapply ing
ĠCO M
Ġg oto
ĠP ower
ĠM er
pon y
Image s
Ġderiv ative
Ġi ma
Ġin str
ĠC OR
Ġfield name
Ġunder score
We ak
ĠExp and
G tk
c mb
n itro
Ġre corded
Ġg i
Ġla titude
be red
CA ST
Ġtrigger s
== ')
Ġsy scall
"); \
gA o
s an
re ceipt
ri ed
get opt
Ġd atum
ys lip
Ġj avascript
Read U
Ġattach ments
Ġfo ot
w kb
Ġto wer
ĠY AML
Ġtrack s
Ġscra py
re locate
sub section
named tuple
assign ments
balance d
experiment al
ĠExtra ctor
X T
Ġ' ):
AC COUNT
Com ments
Ġso on
84 2
Ġup stream
Multi line
S i
Ġre jected
vi ty
',' =',
ick start
ia o
POINT ING
j is
add rs
Ġpart ners
Ġpri mitive
dat um
ĠCourse Enrollment
Ġdot ted
regular ization
Inte gral
n od
ĠE asy
ument a
Ġ[' .
By Id
ĠComp are
> )
in vert
st ores
ance led
ĠE ng
av ail
Ġ'_ ')
Sta ff
------------ ---
ĠUnicode DecodeError
Ġlow est
C DF
ip ment
Ġ9 3
vm ware
= __
Ġover riding
anti ate
k n
li gh
(' {{
cur ial
arg parse
) ^
ar di
Ġd rag
ĠA ct
`` :
AB Q
Sequence Equal
horizontal Layout
= <
C AN
P ut
Ġclass method
AC CG
Bounded PositiveIntegerField
to array
Ġpo tentially
Bo ard
---+ ---+
MARK ER
B G
[ ...,
07 9
Ġcycle s
Ġseman tics
: **
() ')
ĠF lat
add Action
om it
parse Error
Ġhas her
context s
N Z
ç §
ĠR GB
do it
Ġrelease s
Ġdriver s
o ul
CS V
ãģ Ĺãģ
tl v
ĠLookup Error
ĠUns upported
x ls
an za
stri pe
br and
IST ER
ele ry
ro g
li z
("/ ")
mat rices
AT ORS
cr s
09 3
76 0
ĠUser Profile
Ġcap tion
à¥ ģ
Ġbook s
F OLDER
In vestor
change list
up loaded
Ġl atter
emp t
/' +
team s
Ġt bl
() ._
Ġh aven
CO VER
Ġimp rove
######################## #
h dfs
Ġ ĊĠĠĠĠĠĠĠĠĠĠĠĠĠĠ
"] },
Ġrep laces
ĠRoot Frame
1234 56
in vite
Ġc nf
Ġb isect
Ġd hcp
return ed
ĊĠĠĠĠ ĉ
Index ed
sec utive
Ġ' ::
=' '
Ġ8 1
æĬ ¥
å ¾
date d
no stic
Ġsnapshot s
Ġtran sitions
mute x
CRY PT
D IM
i ri
w est
Ġle ts
simp lify
S HOW
": [
67 6
Mo vie
Ġ", ".
ĠPipe line
T ITLE
re vert
ĠA ES
sub classes
Ġ\ '%
Ġmax length
` '
a W
Ġp as
]) *
gin x
Ġauto escape
ĠRun time
A nswer
() [-
sione er
ĠConver ts
PLUG IN
> ]
Ġ( ("
ap se
ho o
09 5
HTTP Connection
Ġsplit s
me as
lic ate
wa v
88 2
Sub scription
Ġsc anner
Ġxmlrpc lib
Ġ Î
') "
and ra
to y
bri ef
Ġvirt ualenv
a uc
m ite
o x
work dir
og onal
arch itecture
system s
Ġturn ed
Ġclassi fiers
Ġen tered
print f
ĠCon v
000 8
o ir
key stone
IT IES
port unity
buf size
Ġexp ressed
Process Error
ĠUp load
åħ ¬
Ġty pename
ĠG MT
min e
eval uation
Ġ'.. ',
D im
te sian
si zer
for wards
mo gene
55 55
B T
Ġ1 25
from keys
Ġmin idom
, *
= &
S eek
s mooth
de tailed
08 2
Ġ... )
Pl ug
note book
align ed
WifiRemoteStation Manager
ĠFin ally
ĠComple x
al ice
49 7
AK AC
è ½
re call
Ġm l
is m
assert Items
cess arily
Ġta u
Wait ing
Ġcen ters
Ġnavi gation
+ '\
j ack
o h
s he
x z
Ġin dented
)) *
Ġpy lab
pr incipal
Ġti p
STAT S
Ġperform ing
} $',
Ġ ys
Ġp w
Ġm ul
si tives
ĠV PC
pi log
84 1
EST ION
Ġcs rf
mq tt
ĠTechno logies
Y EAR
Up grade
Ġoper ate
] ==
b asis
al ia
Ġst ory
IT ICAL
ep ub
03 1
07 8
Ġq t
Ã³ n
Q T
Ġproto cols
final ized
(" !
file size
open ed
07 0
Lo ading
('.') [
Ġcalib re
F s
Ġc ms
Ġs ink
ĠĠĠĠĠĠĠĠĠĠĠĠĠĠĠĠ ĠĠĠĠĠĠĠĠĠĠĠĠĠ
66 2
ĠEn code
ĠSQL ite
ĠOp tim
p ca
é Ĺ
Ġb rowse
P rom
Ġf etched
Ġg round
ĠD IR
line sep
Ġrecipient s
A ff
Ġs vc
Ġs ufficient
ĠT witter
pre pared
Request Error
h an
key pair
55 4
PACK AGE
P an
bo ards
Ġsucce eded
k in
Ġs cr
ĠT otal
Ġkey ed
MA V
schedule d
Alter Field
( .*
Ñ ĩ
re build
cb c
Security Group
ROUT ER
Ġex posed
DI O
Item Iterator
Pre proc
ĠBu ilder
ĠBo ol
Ignore Arg
Af rica
se mi
Ġs v
ĠP atch
Ġun safe
fil ing
Task s
e vt
Ġsub titles
â ķ
di x
code point
69 7
So ft
es c
In ventory
gri m
Ġcompo site
THRESH OLD
re ame
ma cs
ĠS AX
Ġrandom ly
78 5
b untu
Ġ utc
n se
Up per
ĠName space
SA VE
ĠItem Factory
Named TemporaryFile
Assign ment
M ig
n the
x sl
Ġb a
ĠS pace
V K
Ġ2 02
ĠPro perties
Plugin s
p ids
read ing
min imize
ĠIn dicates
76 5
Log File
ĠIn ventory
06 7
07 5
Str Opt
Ġdraw n
Env Var
as yncio
Ġ[ --
ule r
TestCase s
trunc ated
A ct
æ ŀ
AL TER
son g
Ġsee also
Ġsaf ely
\ ":
ge bra
co ind
ĠM ET
Stream s
P ED
R c
w anted
in cr
Ġ0 8
12 52
Ġvm ware
SV G
# '
Ġb tn
time line
ds r
77 1
Ġ(" -
fin diter
D EST
L ite
assert SequenceEqual
sh i
ĠN umeric
Ġx x
Ġbase dir
ĠValid ation
Timeout Error
Ġbu ffers
Ġq os
down loaded
> {{
s da
out going
altern ative
Repe ated
ĠT Transport
ĠC E
Ġpro totype
tp ort
Ġkey stone
Ġad v
Ġph oto
nume rator
I gn
w xyz
de tector
ro d
og gle
dot ted
rm dir
Ġd lg
Ġh ence
Ġag g
Order Map
Eng lish
T os
[ ('
Ġo mit
55 2
byte order
Has Field
inc ref
> %(
B I
Ġto ggle
69 4
49 4
a decimal
Ġe Error
Ġor th
Ġ(" %
Ġtr usted
Ġknow s
* :
b ag
ç ī
pro pagate
Ġr nn
Ġ3 60
sp ent
Qual ity
@ %
D W
X MM
g olden
Ġs pi
ĠS tyle
Ġg cc
sy scall
F W
b ee
ĠD river
Int o
Ġmav proxy
. ]])
æ µ
Ġ( !
ĠCo untry
Ġcluster ing
3 13
G reen
Ġre boot
Ġin direct
Ġfor get
ĠD ump
ĠR EC
Ver tical
ĠTrans form
MEDI ATE
Ġl un
linen um
seq s
ĠOn ce
Ġ= ================================
am s
cur ate
Ġad vanced
Ġsy scalls
Ġaccess or
Ġsuffix es
PUB LIC
Ġadj usted
B est
n curses
Member ship
Ġse lenium
bb b
Ġpatch ed
Ġsn ippets
Ġlu igi
R ank
ĠM B
PW ATER
PERL ND
Ġ entropy
ma ko
Ġ1 000000
red u
REF ER
MEM ORY
k orean
Ġnew s
nu ma
ĠPAR ENT
Ġnest ing
offer ing
un install
ĠA void
cc c
inf ra
Descri be
F atal
v box
ĠE lastic
tra p
Cal c
assertDict Equal
AKAC gAo
S ID
Ġe mitted
Ġfor tios
text s
77 2
ĠY our
Ġad apt
ĠAr ch
sym links
reduce d
ĠEl se
ĠA PP
EN DI
check ing
66 1
Ġabs path
S cheme
UL ATION
)] :
Ġpost gres
LD AP
Acti vation
I xn
R ichText
p ulse
Ġm q
rep lay
cc x
1234 5678
ĠØ ¯
+ )?
e igen
ER GY
ST ANDARD
ud nn
cell aneous
BO M
c si
h z
key board
Se ed
Ġprob abilities
save fig
U uid
b ay
import ant
CT IONS
CO bject
ep hemeral
)] ))
side s
Ġforce d
tex it
Cur rency
GR ESS
Ġinv ocation
alloc ated
pre cedence
Ġpass words
08 3
Ġ'{} '
} })
il ler
tri bs
Mode s
m illi
å ĳ
re sid
am t
IT ESPACE
UN IX
Ġldf lags
g te
FUN C
deri ved
foot note
F u
n fs
Ġm t
Ġbatch es
ä¸ į
Ġattemp ting
D X
c isco
or row
ĠP E
AL T
pl atforms
basic Config
ĠGra dient
Ġinterest ing
Ġ"'' ",
K A
Ġ" )"
Ġs mooth
ad apt
ĠM utable
RE PE
gra ve
Ġad verti
pos sibly
ĠAp pro
+ /
N avi
an umeric
Ġ'# '
Host s
Ġspa cing
r ust
de partment
key map
ject or
Get Attribute
No thing
^^ ^^
EnumValue Descriptor
Ð ²
Ġa ci
Ġf q
() ',
ĠG ather
ĠU S
Date time
SER IAL
card inality
provision ing
CT TT
ĠPil grim
å ī
re serve
an ussi
late ncy
ĠIn ner
Ġz info
:% (
ĠCol lect
L ER
(" >
IN TR
Ġpre view
Add on
/{} /
) %
od o
que s
""" \
Ġ3 01
assertTemplate Used
R AD
] [:
d ong
v w
ĠD AG
=" _
ĠH eb
Ġ\ ""
fail If
Ġtri ple
EP SG
assertItems Equal
G W
N ative
or ient
ar th
Ġse nsors
FI ED
Ġman agers
gl Get
Energy Source
rich let
Q uick
v cpus
w id
Ġre ly
Ġ** *
Se g
Loop back
Ġ= ================================================
Ġtra its
PO OL
ĠEn coding
Ġp lots
Ġw rapping
Ġblock ed
Ġc ritical
Ġs andbox
test app
ĠC P
tern ational
Qu antity
Ġpublish er
C pp
E q
en velope
Ġal ive
mod s
th readed
Ġc g
Response Error
Graph Keys
BY TE
DEP TH
O W
u ters
on ing
er g
Ġn aming
ĠB ASE
cent ration
0000000000000000 0000000000000000
Ġ" !
main tenance
B az
De precated
ach er
var type
05 2
TO M
declar ator
Ġ served
__ ('
AT I
RE LEASE
use rid
44 9
Ġob servations
Ġfont size
Comple tion
Without Context
PRES ENT
č Ċĉĉĉĉ
Ġh its
ĠO G
RE DIRECT
mn op
N F
ce eded
Ġm f
Ġ% -
Ġg rpc
trans former
TR ACK
Ġgra ce
Lo aded
mon o
96 33
Th an
Trans former
Ġmost ly
Ġdesk top
m sec
is y
CT T
current ly
Ġsingle ton
Ass oc
ĠPR IMARY
ĠHeb rew
d T
Ġc make
ĠL INK
Ġr aster
ĠR ou
He ap
dev null
Sh uffle
Allow s
Ġincre ase
Ġdeveloper s
ĠExtractor Error
. ]
h al
p ly
s ay
in sum
Ġpre amble
Ġsh rink
Ġmax size
44 6
Ġoff er
Pre sent
Ġdrop out
Ġimplicit ly
movedIn Django
add Item
sign up
Ra dius
ĠV ist
Ġstart Tag
Wh ite
S lices
u um
st udio
Ġa ck
Ex tent
ĠCon sole
ĠSM TP
war ns
byte code
article s
\ /
b ill
ar able
en force
Ġcr on
Ġ[[ [
ĠÐ ¿
ĠCal cul
Ġdeci de
F ALSE
I H
J an
ra tic
Ġv cs
ĠS trip
Ġde signed
pol ar
Bound ary
B IB
== >
Ġcon cept
ĠP i
68 5
CC C
peak er
q emu
Ġa texit
Ġf loor
Ġu om
Ġpro pagate
ow ski
Set Up
06 8
Ġhw tacacs
q rst
or al
Ġ{ :
class name
ĠD T
Ġ` .
Ġcap ability
NOT E
Regex Lexer
is s
app liance
AT CG
Ġper manent
54 2
tar file
visit or
f onts
Ġw r
ĠA gent
ip sec
ĠIn voice
PO LY
ib m
Ġhash ed
u F
y z
Ġco erce
ms vc
Ġsub section
cre asing
Make file
lab e
æ Į
le sky
Ġw all
sum maries
No va
Line To
P t
od bc
Ġl ab
run pytest
QL abel
Ġsym links
Ġfan art
ĠLen gth
ĠT ran
67 5
08 1
Ġanaly ze
De li
AA AG
mand atory
; -
ma gn
pro ber
per manent
Ġx i
Ġx max
ĠReturn ed
Comple ted
P in
Q i
[ ~
h df
Ġre write
is ation
Ġ@ _
org an
Ġapprox imate
H orizontal
US B
Update d
enum s
Ġcontin uous
h onor
ĠP RE
mat ure
PRO P
Ġpk t
ĠLog ging
b illing
s preadsheet
se linux
Ġk b
ĠQ ual
QSize Policy
S AME
Ġb log
ĠI terable
=' ''
has Content
tist ic
F un
H ot
Ġ( *
ĠL ong
Ġscal ars
Ġlisten ers
pen sive
Ġp nt
Ġdec ref
Ġp ci
ke eper
ĠP ublish
Ġpar ses
rect angle
chunk ed
trip le
s uggest
ge theader
Ġzer ver
Ġ199 8
âĶ Ģ
3 000
v f
Ġg n
Ġen semble
du ctor
Ġextra ction
s lide
co w
Ġtest Get
Ġ} ],
K ER
M AGIC
ut y
(' +
la ci
Ġg ues
Al tern
As set
namespace d
Ġnat ural
K S
0000 01
WOR DS
h ed
Ġpre p
M IDDLEWARE
Ġh unk
==== =
Ġ(' <
ĠCon stant
Client Error
Cor rect
Encode Error
Ġna ive
l just
Ġw p
ĠF ortran
Py Object
Calcul ator
Ġpri vileges
aaaaaaaa aaaaaaaa
succe eded
K NOWN
Ġ' ))
Ġs rv
], "
`` ).
be i
Response Header
Ne ighbors
T IN
_ '+
i pa
form field
80 39
69 5
Ġtag ged
Sh ard
> :
æ ³
Ġ Ø§ÙĦ
Ġc reds
Ġpre sence
ĠOF T
PRO XY
tz name
D ont
RA INT
xi mation
Ġp itch
res ted
AN DS
format ting
sig moid
9999 99
ID X
Ġob servation
co upon
(' &
Ġtype d
Ġsup posed
Sh utdown
Ġ'$ {
Ġrelationship s
ĠSim ilar
o a
Ġm ixin
ĠO k
url patterns
oc cur
if rame
Fl ush
Ġ' ;'
Ġre moval
level name
diag onal
Preprocessor Definitions
m ann
Ġwar m
ãĢ Ĥ
ĠS K
(" :")
De tect
Ġsa ys
i mm
in ery
an gs
ĠRe po
Ġtool set
Ġrot ate
G IT
ve hicle
Ġch rom
til t
PR I
Ġest imated
Ġl and
Get Next
cen tered
break point
pie ce
Push Button
c ash
č ĊĠĠĠĠĠĠĠĠĠĠĠĠĠĠĠĠ
th rottle
Ġc n
Ġs b
ĠA F
Ġde crypt
Ġse cs
Ġpo ols
Ġ'. ')
Col ors
fr m
Ġmonth s
, )))
T B
up stream
Ġex its
add le
sta le
54 3
Ġ}} {%
Ġshift width
D om
Ġn itro
byte array
Ġo id
Ġz ope
ili es
TR ACE
Sub set
Note book
Ġcancel led
ĠRel ated
æĬ ķ
Ġprovision ing
& ,
W izard
pro vides
Pro b
ĠUser s
ĠSh ort
simul ator
S uffix
z f
Ġ1 11
scri min
IP PROTO
Ġdis cover
profile r
Ġassoci ate
ç» ı
z ing
Ï ĥ
(' |
ca ch
AN CH
Ġ9 2
MET RIC
VID EO
Ġsn mp
ĠEng lish
L W
e quiv
Ġf its
ro pping
Ġst ale
system Id
Var int
A Q
f re
ho li
join s
BU CKET
ĠProcess ing
Ġance stors
w l
se x
re sidual
Ġt an
Ġv box
ĠR ational
Request Header
su er
ĠGuang dong
X P
Ġ ĊĠĠĠĠĠĠĠĠĠĠĠĠĠĠĠĠ
Ġcon nectivity
Ġen g
inter rupt
dis position
arge ted
ĠPost greSQL
z b
Ġ ĊĠĠĠĠĠĠĠĠĠĠĠĠĠĠĠĠĠ
Ġs ong
is subclass
ma intain
Ġh el
Ġro l
tag Name
ĠLO GGER
Place holder
( ...)
v ations
args ort
Base Address
RL F
Al locator
D lg
:// {
Ġz f
Ġus ual
ĠSub classes
12 55
Ġbo ost
ĠIN IT
Ġover written
Ad ded
PATH S
ĠEX T
[] ",
B AS
O US
Y W
m di
trans formed
Ġauthor ize
analy tics
Ġoptim ized
pub sub
AKACgAo AKACgAo
h ib
jo hn
lib c
lock s
'} ))
ĠEx port
v stack
as p
Ġt pl
Ġbu ffered
Ġnet mask
cer tain
ĠTh us
Ġmemory view
V ault
] ].
di strib
ĠD avid
py py
Ġcomp aring
pl anned
SG IS
L U
Y S
Ġw ide
Ġ1 12
jo e
Ġne uron
tax onomy
interpre ter
n py
Ġ' +'
Ġpre pended
R ational
con sistency
im mediate
deg rees
associ ation
- ]+
F UT
S HE
ge thost
ad os
Ġon change
Un ref
ĠRequest s
TOOL S
# \
M ER
R IX
Ġre pl
ce ph
ho ut
Ġapp name
Build Phase
psy copg
V R
ing Methods
Ġconfig name
US AGE
Ġsl ashes
ĠPri ce
TIM ESTAMP
è ¨
Ġp v
ab ber
07 2
Ġi llegal
Ġtable name
ĠData set
fort un
Ġ################################ ################
D rag
Ġs uspend
(' ==')
ca mp
IS SION
âĢ Ķ
H ESIS
ĠT urtle
Ġso cial
create Element
ĠCon structor
67 2
bit map
commit ted
ĠBy te
cpp class
Phy sical
Ġcirc uit
contin uation
ĠForti Gate
L AT
(" :
fa sta
Get ReferenceCount
link er
Ġ201 9
Ġag o
Ġlib s
oper and
\. )?
Named Type
Ġa ctor
ĠA bs
Ġpro ceed
ĠG H
ĠW rap
stand alone
(", ")
abb ix
W ill
d ance
Ø ¹
si l
Ġh mac
ĠA UT
OR IG
Ġchain er
: (
C he
] `.
Ġ( ((
ab a
per iodic
Ġspeci es
Reg istered
Loc ale
V s
z k
Ġs te
par alle
Ġover all
ĠZ ERO
Connection Error
Socket Ip
MAP PING
BY TES
d ynam
e thernet
s NC
Ġe ta
ig uous
cre ating
Ġ---------------------------------------------------------------- ------
COMP ONENT
ingMethods Policy
/ *.
c ros
Ġin i
Ġid l
Ġmk dir
ĠFail ure
ReferenceCount ingMethodsPolicy
v h
Ġst ra
Ġgroup by
mon key
down loads
substit ute
Ġpeek ref
ĠL LC
config name
mi ters
Ġhex adecimal
B oto
Ġa ware
Ġc ame
Ġ# "
49 5
ĠCur sor
A xes
Ġb ash
Ġx en
pi gs
Data Rate
Ġmonitor ing
xen api
M ongo
se verity
st rerror
Ġin clusion
pro v
Ġ3 04
Ġx c
ĠLe vel
Ġedi ting
ho c
Con version
Get M
Inte gration
m ixin
ç ½
Ġhe at
Base d
ron ic
ĠSpeci fic
Ġrect angle
ims how
) `.
+ )"
Ġre pos
Ġs ib
dl p
Ġdecor ators
Pcap Helper
++++ ++++
prom ote
ĠR ot
RE PO
ACT IV
sw f
eff ective
pick led
ĠTer min
Pro mpt
da o
ĠNO QA
ĠNet scape
Ġband width
Ġy y
Des ktop
Tree Builder
BL ANK
Ġan alog
sig ns
period s
STY LENS
n op
w an
'] *
lement s
by ref
Ġcomp arisons
Ġpri o
ISH ED
st reet
mo ji
Ġso und
05 3
à¤ ²
ĠError s
memo ized
Ġhar ness
' (?:
T run
Ġar ange
Ġ10 5
Tra ining
ĠEX PECT
ENO ENT
æį ®
/ '),
B urst
S END
e ol
ur t
Error Model
const s
Mode ls
Le af
Conn ector
Energy Model
Ġsqu ared
ĠSOL ID
A ge
m nt
Ġl w
ĠWH ITE
åı ¸
Could n
Pur chase
Ġs lim
ĠS cope
ĠI gn
net s
Ġpre f
DIS K
coordin ate
æĹ ¶
S PI
m ip
Ð ´
Ar n
Ġdist ro
à¥ ĩ
w ell
ĠC URLY
ĠU rl
cor por
subscription Id
ĠRet ry
ĠCre ating
Ġve locity
WINDO WS
Ġa odv
ĠU tility
CH UNK
Ġne cessarily
ĠIN ST
xy gen
ĠAt tr
socket s
Ġcle ared
CUST OM
b ullet
m ux
re servation
() [:
ili ary
criteri a
e mulation
u ary
li x
ul ating
Check Box
controller s
know s
r dd
Ġw allet
ĠN umpy
Ġmin i
49 8
Ġ'/ '.
rand range
OLE AN
b ble
Ġ timing
64 00
mu sic
Ġdigit al
ri f
ĠD est
ĠN ational
Ġ'/ ':
ĠNo thing
Gener ates
Format ting
ĠMA V
monitor ing
D aemon
no tice
print able
ĠOper and
capt cha
u os
Ġbe yond
PAR ENT
Ġstandard Msg
ĠParser Element
e E
ĠT ex
group dict
Read ing
cat ter
ĠPARENT HESIS
qui va
pri o
pk t
Sy mbols
Ġb py
per formance
Ġsim ulate
Jo bs
4 096
in ference
ro i
Ġ8 3
Ġinte gral
Ġsubstit ution
ĠSOLID US
ex pose
ib ull
Man age
Ġdisplay ing
Mb ps
p lays
s ation
Ġi x
Ġp rac
Ġg rep
mb ic
Ġsub string
97 0
Ġrelative delta
MAN AG
Ġmach ines
ĠNum Py
ser ves
Ġl v
by pass
Ġ, '
TypeId Checker
Callback Checker
Represent ation
åħ¬ åı¸
Ġb ri
EXP AND
n il
re raise
st ype
er cise
Ġip address
ĠMake file
ĠInte l
WH ITESPACE
b el
g cp
'} ]
cor ing
0000 000000
Ġpre compiled
iter ate
Dis patch
8613 7
(' "',
gra ce
Ġobj ective
Q os
a len
si tivity
ĠP tr
pre pend
pp c
ĠLO CAL
Ġassoci ation
Some thing
) ``.
st p
Ġ' ../
Ġs pectrum
Ġsys vals
Ġunder stand
Ġdir path
IF EST
Ġco er
per imen
Go od
C li
Ġe i
IL ON
RA CTION
Ġorigin ally
Hop Limit
Github Object
d ct
k u
v an
Ġi cmp
Ġv port
Ġr nd
db m
termin ation
ĠRES ULT
a ug
b ro
m map
ar cs
Ġf re
ĠP ID
Ġfol d
The se
hex lify
irm ware
00 11
Ġ1 69
col lapse
Ġ) ;
File Type
be cause
the class
Ġpoint ing
Pa cific
consume d
F d
T M
c time
l w
() ."""
str ateg
sh or
SE CURE
Ġint f
Map ped
Ġpool ing
Ġrel path
kl mnop
Ex c
ĠGet ting
like lihood
Ġanaly tic
CLE AR
C ANCEL
_ ():
ĠA CK
SUP ERUSER
P lain
Ġ č
Ġo gr
Ġe limin
Ġ{} },
play ers
ĠLD AP
in structions
is link
ĠI tems
ĠN avi
load able
speci fier
ãģ Ħ
PS ILON
Fn v
Separ ated
Ġin clusive
Queue Item
ĠHttp Request
) +'
Ġw ww
get size
00 20
content type
Ġcourse ware
]] ]
ĠReg istry
3 18
l te
th ed
Ġp si
as sis
Ġv an
ance stor
ĠU ID
cy thon
gener ators
Ġsp in
Sta tistics
Ġnote book
M gr
Ġone ofs
ĠSH IFT
A H
\ ",
å Ģ
Ġf lex
mis match
Base TestCase
44 5
And roid
SY NTAX
ĠReg istration
Ġorg an
å® ļ
æł ĩ
A AC
G PU
X C
Ġde clare
Ġg row
44 7
Mo ved
export s
rpc api
g x
p ct
IT T
Ġtime line
Ex periment
Un used
ĠBo x
My SQL
ram id
('\\ ',
ab br
ĠA ST
ap ic
uby te
r us
Ġw d
(" ~
(" {}
Ġ_ )
Ġpro pag
Ġrep lication
over laps
ĠF uture
ĠN orm
pos ter
Ġob served
ilf ast
ç¼ĸ åı·
e o
X B
re si
is olation
Ġ`` \'
Ġbit map
Ġmen tion
' @
B ATCH
k arma
Ġ= ",
ou ght
Ġk o
Ġurl join
Ġpl at
lon gest
S n
Ġv dom
ĠF low
pro vide
ĠP ortions
Add resses
Ġany more
LOCAL E
Sa ver
l ators
Ġf m
item getter
... ',
Ġq name
Ġcomm its
SET UP
Template SyntaxError
expect ation
Success ful
Ġele ms
Ġ* _
do or
Sc anner
) ->
s co
app able
ĠD ense
SE P
Ġtab stop
Ġnavi gate
sx w
I terable
EN DS
ĠR ight
ĠH en
De cl
ID S
Pbb Tlv
ĠSY STEM
s lider
Ġm ult
ra ki
Ġsh if
Ġask ed
s pect
Ġ Ċĉĉ
ce an
Ġv endor
ne tif
now ait
AF ABQ
ĠUnicode Error
Ġsubstit utions
f rench
h ack
r aster
w al
ro red
Ġu v
ĠH tml
Clo stri
in herits
Ġre ST
Ġre directed
from Hex
è¯ ģ
sth rough
mo vies
forma tive
MACH INE
H int
_ %(
me ters
Ġde t
text area
ĠW IN
Add ing
Expi red
ĠGP IO
+ (\
Ġp aste
def late
con firmation
:: __
Ġ'- ':
Per form
Ġtri ck
Wri tes
heb ang
? |
ur istic
get frame
Ġav atar
ĠFree CAD
Ne utron
æľ ī
Register Message
æĸ ĩ
2 89
S el
Ġd ri
Ġst ops
os f
De sign
FI FO
Lo ok
SM TP
('_ ',
ĠPost GIS
# _
F oreign
Ġa pt
ch own
ĠF C
GL U
i ra
y x
sh util
Ġ3 27
pre ci
Ġ< >
\\ .
of p
',' ')
modi fication
ĠParse Exception
Ġweek day
b iases
h stack
ĊĠ ĊĠĠĠ
Libvirt Config
Ġre cording
est yle
mon ospace
ĠAS C
squ ares
E di
M j
N i
S teps
v hd
Ġh p
ask bot
Ġdoc strings
000 6
Cur ve
MENT S
builder s
robot parser
v fs
rom an
Ġcom bo
Menu Item
#---------------------------------------------------------------- --------------
V pn
li city
um flex
Ġr mtree
ĠTest Suite
ĠPro blem
x FE
equal ity
69 8
g ly
if s
Ġapp liance
ENT IC
Ġpipe s
ticip ants
P AL
Ġt re
ĠSt d
DIS PLAY
T or
W eek
re ferer
Ġb anner
ĠT MessageType
ed Array
Re view
Y i
t type
un os
') }
ration al
Ġav ail
Constraint s
OPTION AL
an on
Ġp assive
and ong
Re store
09 1
gl Vertex
Wh at
aggreg ation
ĠNormal ize
å Į
Ġ' '):
Ġin tent
Ġm type
Ġ( ['
Ġy max
=" \
St udio
ĠIn it
Ġre member
Ġb w
test user
sc d
St arted
Ġtra de
Ġbuffer ing
ĠDESCRIPT OR
h U
Ġb irth
Ġmax len
Ġsupport ing
ĠThere fore
.*? \
å¼ ı
Con sume
EX TERNAL
bl as
âĢ Ļ
ENDI AN
R AT
ë ĭ
st rength
ur s
ON OS
St age
HTTP Request
END POINT
Ġexpect ing
Ġhappen ed
Enable Ascii
Work space
z api
fi sc
back off
Ġedi ted
, :]
Ġb d
(" '%
ĠM ath
ĠE scape
Id le
ef ficient
HTTP BadRequest
GP IO
ĠJson Response
P list
S lider
d na
é Ķ
Ġs anitize
ne ar
Ex ponential
inter polation
Wifi Manager
SSL v
Ġ1 04
ĠV ar
no se
ĠAl ready
ufacture r
0 35
4 24
b fd
test file
In voice
Ġpa x
Ġback ing
Ġregular ization
Relation ship
D et
M urmur
', )",
int f
05 1
getnew address
d ock
i loc
re rs
Ġd ashes
ĠV ari
multi line
2222 2222
< %
B RO
b am
b attery
(' ~
Ġby pass
Ġpo inters
Ġissue d
predi cted
Ġidentify ing
x range
urn ame
is atty
:: -
Ġde part
ĠL exer
AP H
Ġwork sheet
ĠDi rect
Ġmp f
REPL Y
Ġmilli seconds
H alf
] ``
b one
æ ģ
ja co
O C
en codings
Ġt axes
Ġd bus
ĠF eb
tri ggered
Ġfa ces
000 9
Up loaded
={ })
Ġ", "
wrapper s
Ġscheme s
YP H
ub untu
par s
]) ;
ĠIS OL
BO OK
DT D
ĠEOF Error
ĠBit coin
f ab
Pol ler
VARI ABLES
Ġp x
ate l
Ġd ual
Ġal i
sa ver
Ver sions
Ver ifies
Ġvari ants
ĠVAL UE
di cation
Ġan n
set Property
IC S
nd o
". "
TR Y
HEAD ERS
Ġi l
View s
cap ability
Ġlook ed
ERS CRIPT
analy ze
Ġdot s
Ġ######################## #
Ġm b
per centile
ash ed
Me ans
Ġca ref
Ġpag ination
,, ,,
MODUL ES
ad vance
est imate
Ġhash able
Ġpatch er
Ġboto core
declar ations
I RE
O racle
ĠM ixed
no stics
err check
Ġcmd line
Ġshow ing
datas ource
Ġra ce
item size
ĠPro gress
CI AL
Ġlin ewidth
Ġ... ]
normal s
Ġ Ùħ
Ġt weet
Ġs vg
pa ger
type code
we red
Cl one
SIG INT
who le
n ce
el m
ver ifier
Test Run
04 41
Ġconfig parser
the tic
how to
VER SE
sock s
Ġ1 60
Ġde tach
Ġ2 14
ĠO ld
Ġfetch ing
ĠFil ters
qrst uv
labe led
P ENDING
b la
de al
ad c
Ġme ter
ĠU til
Ġip addr
Ġhead line
Ġpen alty
lo red
md k
06 5
Ġab ility
aly ear
ĠApp le
Ph oto
Ġ? ,
fisc alyear
S rc
é ¢
as semble
nt l
ET H
Get Name
Ð¾Ð ²
Inst alled
U CS
d ings
Path To
Ġcoun ters
Ðµ ÑĢ
jac ency
/ %(
app lic
ĠR UN
54 1
local ize
Ġcor relation
Ġ'' ',
! [
W T
g pg
st ones
Ġp ts
AC ES
norm case
Ġlos ses
z mq
½ Ĵ
Ġ4 09
Ġadd ons
inter polate
Ġparser s
ĠSh andong
Ġanaly se
ĠInfo Extractor
AFABQ AU
Ġ1 999
ach oir
ros pect
Ġlon gest
Ġw c
Ġmo bile
Ġbuild bot
ide mpotent
Ġmacro op
in str
ĠR DD
ĠBase d
Byte CharSetProber
ĠGroup ing
recur sion
Cookie Jar
: ]]
ser s
con cept
Ġg ce
ns y
Con ditional
Set Value
BU F
+ [
Ġin active
======== ===
fore ver
ĠAt tach
coef ficient
weak ref
F AT
S trip
Ġm or
Ġ1 30
ent a
64 64
CG I
B Z
E ffect
I STR
ç «
or ry
get list
ĠH yper
entic ator
Ġconver gence
Ġ'$ \\
ĠSUP ERSCRIPT
Proto s
L ambda
k ml
x id
Ġo virt
Ġex ha
ĠC Make
Ġevent ually
Ġmin us
Ġ9 1
ĠLO W
direction al
ĠDocument s
frozen set
: __
T U
Multi Dict
Ġqueue s
VAR S
Attr s
ĠAgg reg
Ġv is
arg str
AD ER
BOT O
ĠMS Build
Ġesc aping
3 16
H EX
P USH
Ġp an
ĠA DD
12 51
xb mc
Out Of
GL int
} ).
par dir
py websocket
Ġform field
MULT I
ĠGE O
ĠHeader s
D Value
W ave
Ġra m
Ġfa cility
Ġlib vlc
Ġ---- --
Ġpag inator
Ġintro duced
X z
ĠA CT
pre processing
PRO VID
Ġhook env
v k
ul ner
'] (
Ġinter net
ĠString Field
b ond
max int
ĠIn iti
RO KE
sd v
sn ake
Ġtor ch
accum ulator
criteri on
8 50
re mo
ĠQ uestion
79 7
ear ly
Le arn
+ ")
C c
P db
Ġf riendly
ul ations
sub plots
we i
Out line
Wait For
åĲ į
Ġscra per
COLUM N
=" *"
Par ame
07 6
pop ulated
Ġpe ak
amazon aws
G AR
L OT
Ġcomp utes
No ise
ĠComm it
åľ ¨
+ |
Ġf am
67 0
ws dl
h box
ib atch
. <
C id
s bin
ĠC LC
ĠF ace
Ġres hape
lib vlc
are r
imple ment
Ġ'' ')
CC GG
ĠEN ERGY
ĠBe fore
tan h
E ff
re fid
Ġr an
Ġch at
"] ):
Ġsub command
Ġfl ux
Auth enticate
ERROR S
ĠSy m
ĠGEOS Geometry
anger ous
a che
è §
pri tes
Ġtrans former
Th ree
Ġ"- //
ĠSHA DE
CHANG ED
BOUND ARY
F K
le f
it a
De mo
Ġinte grate
Ġfrag ments
Ġtun nel
set ParseAction
ĠF UN
Ġx p
wa f
default dict
Ġ`` .
usage s
Ġ429 4967
ver ts
(" $
Ġout going
min imal
back slash
gr ind
Sh ader
!! !
forward ing
åĪ Ĩ
123456789 0
p al
ĠT ONOS
ION AL
the ad
bd m
> |
en dix
qui sition
CT X
Ġend block
Ġ'. /
ĠAuthor ization
) <
s cons
li e
ck e
feren cing
interpre t
i SCSI
Ġv r
ĠR ect
St retch
ime d
CR ITICAL
DQ p
Ġth umb
Ġd ont
'): (
Ġpre fetch
AB IL
Ġass umptions
Auth Handler
C at
N eeded
h q
Ġ0 00
ĠPro vides
Dele gate
Ġcould n
bi di
appro ved
h k
p ivot
Ġ ly
Ġw ake
Re c
ca iro
ts k
ie ce
(* )
presen ce
ĠFE ED
H y
Ġ ERR
Ġc rypt
Ġ# (
Ġ1 26
none xistent
Ġmicro seconds
Ġfor um
Ġme dium
Ġl ms
na ive
sur f
ĠTechno logy
ĠPARAM ET
ĠA g
IN FORMATION
tri angle
AT TG
r ubric
ĠE NS
ĠDe p
follow ing
Ġ'| '.
ĠRepresent s
Ġin herits
os g
http d
CE L
Ġexc info
raise d
Ġmem cache
f le
f ly
x min
ti ble
Ġun ary
om an
ĠB ug
tra iler
Un ix
"> &
account ing
Ġ%} ',
virt ualenv
ĠMan ages
L IGHT
s anity
u on
ĠF RACTION
ec urity
79 4
Ġpri me
Ġprocess ors
Ġph rase
aggreg ates
EXECUT ABLE
s db
Ġf ac
ge ometries
int rospection
Ġtemp dir
Do ctype
contrib utors
RG BA
al ong
ck o
ten na
tra cing
lower case
COMM ON
Ġconstruct s
ĠCOR P
A ug
G nuplot
a ul
y i
ĠT om
ĠG UID
Ġpr incipal
Ġskb len
I VER
er son
ad v
to wer
Ġpro mp
app name
data field
79 6
tran script
Ma jor
E s
U A
s am
Ġa vi
': ['
es sian
Ġj ac
OP S
Web Kit
Mark et
Fore st
o paque
og us
Ġ/ ><
std dev
Ġ"' "
Ð° Ð½
Global s
Ter m
ELL IPSIS
se m
in teraction
ad apters
à¤ ª
ĠMatch es
0 32
ĠF ore
ĠV S
SE xception
ĠGener ates
")) .
Ġhash ables
([^ \
calc size
L ITERAL
s amba
Î ·
ĊĠĠĠĠĠĠĠĠĠĠĠĠĠĠĠĠ ĊĠĠĠĠĠĠĠ
AS N
tra de
Ġmod al
Ġmultip ly
W dg
p tive
Ġs ales
lo od
um idity
ĠP ASS
ee ee
stack s
Line Edit
ĊĠĠĠĠĠĠĠĠĠĠĠĠĠĠĠĠĠĠĠĠĠĠĠĠĠĠĠĠĠĠĠĠĠĠĠĠĠĠĠĠĠĠĠĠĠĠĠĠĠĠĠĠĠĠĠĠĠĠĠĠĠĠĠĠ ĠĠĠĠ
ĠA vi
04 42
74 3
description s
other s
RA IN
ĠLI ST
4 37
T yp
Ġe ager
get Element
ĠT F
Result Set
(""" \
Ġhyper visor
up loads
Ġh orizon
Ġac company
build dir
Ġpad x
ĠStruct ure
' ([
B eta
D r
al go
set Size
vi sited
Ġg one
ĠL P
ST O
19 70
He re
Ġ... "
ĠParse Error
vile ged
a id
p ins
Ġd uplicated
is olated
ub ble
Ġse ct
ĠRe fer
Ġj id
over view
PR INT
ĠPUB LIC
0 34
g cs
Ġg pu
po sit
pos ted
An not
install able
requi site
re index
ro ug
ĠL ow
De termine
write ln
ĠSpark Context
Ġ' >'
Ġ1 44
ĠG R
Ġreport lab
Ġfit ting
f ro
t types
Ġ" ..
am d
ĠE q
RE ATER
Ġstruct ured
Token izer
Op Error
Tool Tip
Ġgl ance
NOW LED
nex us
æ Ł¥
ĠF inal
Ġ(_ ('
ĠTemp orary
/ $
D d
k J
Ġs warm
li a
ul y
Ġ0 9
Ġde lim
Re ceiver
url conf
ĠU DP
ĠCON ST
Ġcom mented
FORM NS
adjust ment
ta cks
Ġ< %
ip address
',' -
Parser Error
Ġdele tes
ĠService s
S ynchron
Ġex tern
(" //
Get Size
so ap
Ġevent let
Module Type
Over flowError
Red uce
R obot
Ġp added
Ġm kt
pre cate
min idom
doc name
Ġattr getter
delay ed
under score
qrstuv wxyz
In dic
Ġprint able
Ġhost vars
47 2
Ġfin ite
Ġmulti line
fortun ately
' &
doc format
Ġdb name
ital ic
f ra
Ġs at
di p
Ġb n
Ġro spy
open ing
most at
Ġexpect ations
]? [
4 80
x axis
re lay
key file
UB E
Ġsearch es
Ġden ominator
F allback
o pacity
Ġt ty
tx s
Ġref erring
Unicode UTF
! )
U r
la ves
mail box
xff ffffff
ov hg
ç» ĵ
Ġbracket s
Ñ ĸ
Ġas m
ĠF ollow
Get Multicast
Ġpy mongo
Ver bose
convert To
Tran sition
q c
Ġ2 40
ĠU CS
ĠAc tivity
urlencode d
glx ext
perimen ter
k h
t alk
", '
ĠDi stance
blob s
MULT IP
ç® Ĺ
U ses
y r
() '),
'] +
"] })
CO ORD
View Set
fit ted
ĠAc ti
Ġ ################
re levant
ĠD ynamic
oper ands
ĠNot Found
Image Field
Simulator Impl
un get
ch astic
Ġco in
ĠPRO JECT
ĠAnaly sis
N EXT
g pio
re de
Ġs he
ap on
ug ar
pb x
cancel led
Ġprevent s
Ġentire ly
ä½ ľ
ref er
LI KE
tmp file
rho g
ĠTick et
c bb
l ti
l gdal
p ho
Ġ ########
Ġ= =========
TT TT
Ġcor rection
Ġdeli mited
N M
o ol
Ġe thernet
Ġm n
ass ume
ĠW rapper
py tz
ĠB ib
('- ')
END ER
r uby
ma tions
Ch at
ĠIN PUT
48 5
pid file
ret ty
Z A
lo ver
ne goti
25 00
ref lect
Ġmain tenance
sim ilarity
ĠPL ATFORM
C ipher
J x
S aved
p ants
x mm
ĠB ound
ĠRe pe
3 17
G zip
b cc
Ġg ray
pro cedure
Ċĉ ĠĠ
Ġr pm
SE G
File Handler
AS ES
Ġbin aries
Ġmar shal
Java Script
éĵ¶ è¡Į
N u
v ary
Ġo lsr
Ġm map
Ġw kt
op ri
Ġun specified
!= ')
74 1
copy file
PRO T
press ure
CS ecurity
Dele ting
Ġdisc arded
: _
ct ures
Check point
yp al
Ġexce eded
Ġra dio
Test Class
Ġvi deos
Ar r
SY NC
ĠExp ression
Ġevalu ates
Termin al
ĠModi fied
abcdefghij klmnop
3 89
an im
pe s
Ġto c
op codes
resource GroupName
Frame s
sal ary
ĠInter net
episode s
L ater
se ctor
Ġc k
lo st
ĠS EM
type d
ĠI dentity
ĠM od
Ġx min
Ġtype def
Get ter
Message Begin
Ġattemp ted
O D
n ia
ck er
Ġch ance
RO ID
Ġlike lihood
uni ties
Ġconstruct ing
ĠVAL ID
O U
e ither
ID R
Ġcap s
Information Element
AFABQAU AFABQAU
E thernet
T EM
od oo
Ġra y
Test Mixin
close st
true div
imp lied
Ġchunk size
aco bian
and o
ĠD ocker
25 49
Ġtarget path
Ġerr msg
Ġvar name
Ġnx os
pagin ator
$ %
/ :
M ES
(" &
=' +
Ġlog out
Di alect
Ġop timal
cer n
Ġtx id
Fin ish
6 20
U dp
er ase
Ġg cp
ĠD imen
gra b
bar code
Socket Ipv
GR ID
Ġiniti ator
' â
s warm
09 2
cent roid
Ġoccur rences
placeholder s
x os
ĠA ir
db api
pol ynomial
commend ation
4 68
B anner
y um
} %
Ġre build
ĠS anity
Ġsys log
List Type
AC Y
Ġfa ctories
ale tte
ĠWh ile
rg ba
)) ?
fo od
à¤ µ
Connection s
'[ \
font size
WOR LD
black list
Cancel led
/ __
e ig
m ong
(' +',
čĊ ĠĠĠĠĠĠ
ha z
Line String
score r
mk temp
isto grams
Ġcateg orical
ĠISOL ATED
} ],
Ġindi cated
ĠJo urnal
Ġ'@ '
Ġis csi
ĠC s
Ġl t
De ad
Ġsub scriber
Ġass oc
202 1
Ġeg gs
NOWLED GE
M R
O ffer
_ ]+
æ ¨
Ġi rc
Ġc val
__ )),
Ġal though
orph an
D ONE
re sis
Ġre visions
ĠRe fs
Ġca mpaign
100 1
NAME LEN
PAR EN
ĠCom bin
Ġtk inter
Ġbeh ind
T CG
t ode
Ġa chie
par m
Ġar cname
sum s
wit ness
Ġchunk ed
Ġkeep ing
Ġo w
ang led
'} )]],
Const ants
ZZ ZZ
( $
re strict
de termine
un te
ma k
Ġg w
Type d
AC EMENT
DR M
Ġenviron ments
k free
p lex
Ġun install
Ġinstall ing
Ġinte rested
äº¤æĺĵ æīĢ
re vs
an si
ol a
]) ',
ĠE ven
Ġdate util
width s
Read Only
Ġjo int
CONFIG URATION
ĠÐ ²
Ġps util
Ġmultip lier
T en
Ġc ub
un ched
Ġb unch
') })
Ġun escape
log dir
ĠV ec
play ing
Ġacti vated
watch er
g mtime
an imation
fa vicon
CC AG
Pri mitive
iden tify
ĠRandom State
åĽ ŀ
] ][
Pre dicate
Ġdist inguish
Ġpost s
ĠBase Command
ĠReg ion
Ġbegin s
ĠUN IX
ENC ES
ä¿ Ŀ
Ofdm Rate
b rain
ê °
ĠL R
Bal ancer
Ġ" ="
() -
79 0
SM ISSION
ABC Meta
Ġincre asing
Ġtempor arily
; <
Ġc sr
Ġt port
", \
ĠG er
first Child
peri ments
inte l
acteri a
> {
o sh
p rune
back wards
mark et
speci fication
tax es
hand ling
è¦ ģ
I W
h rm
la w
py game
Res ume
TR ACT
Pre pare
act s
display ed
Ġcontrol led
Mo zilla
Ġplace ment
ĠTime r
associ ated
Tlv Value
J IS
Ġ 999
Ġp ivot
(' !=')
Ġ/ >'
Ġfeed s
ĠConst ants
CSecurity Ftdc
b rightness
Sub process
ob served
Ġsum marize
br ush
aut ospec
ĠCor p
dy lib
ustr alia
O WNER
b mp
time tuple
Ġdir names
ĠGo od
Ġstub s
H J
Ġc red
ct an
lo ut
Ġ1 39
ĠS uccess
Ġpush ed
MIS SION
E ach
F X
T class
j query
ĠE L
error list
Packet Type
LD FLAGS
eng ali
catalog ue
YPH EN
S at
m ichael
Ġun bound
Ġpre processor
CL AM
mi tives
Ġexce eds
A KE
G ON
_ $(
Ġb t
Ġm ux
con nectivity
py o
TR UNC
View er
ĠST OP
Pool ing
Ġwind ll
4 76
; /
a Buf
fa cility
reference d
ĠSub Element
dead line
EXPECT ED
b race
k all
Ġi am
Ġpro be
Ġ10 3
79 2
Ġpop up
roug hout
F M
ĠV UL
Ġ5 000
79 5
FOR WAR
Ġreplace ments
ĠLa zy
Pay ment
DIST ANCE
l ash
Ġh op
Ġy outube
ĠRe store
Ġfunction al
Ġsys config
Man ual
ĠOption ally
normal ization
Sp here
A zure
Ġt g
ass andra
assert No
group ing
ĠDe termines
Len Table
atten tion
Ġstati stic
P BX
Ġw ent
ĠC ustomer
Ġpro f
:// '
Ġper sist
Un ary
4 99
T ester
e insum
Ġ Â
ter r
ĠS ync
Lock ed
o vs
Ġ â
Ġf requencies
lo ops
Ġrep licas
Ġeffect s
P are
pe ers
0000 1
Ġattrs D
ĠRel ative
met al
av y
ĠBu iltin
Ġ"* "
skipUnless DBFeature
ĠSR ID
] ?\
Ġ ĉ
en rolled
di l
ap tive
out side
Ġpass phrase
Ar p
Do Get
Ġed x
IDD EN
Ġhighlight ing
Ha an
æģ ¯
y ing
} |
ĠD ig
VER IFY
\' ``
çĶ¨ æĪ·
` ")
ĠB lue
Ġ[" --
PbbAddress Block
ĠTAB ULATION
u h
ad z
ĠDe Haan
conf test
Log ical
ĠĠĠĠĠĠĠĠĠĠĠĠĠĠĠĠĠĠĠĠĠĠĠĠĠĠĠĠĠĠĠĠ Ġ
C fg
\ ',
o ber
pa k
cre dits
ĠDe code
String Type
document Element
ĠMet ric
ĠMin imum
ĠImple ment
ĠCSR F
Iden tical
Ġin sertion
test server
UM MY
Build Setting
4 65
6 25
ar ns
Ġb ene
pa used
AT OM
Ġen ded
IS K
Stream Handler
Ġtool bar
uni q
éĩ ı
ĠSum mary
M IG
b ird
g mt
p seudo
om s
CH ED
ĠCon tains
Ġarg str
owner ship
Ġtimestamp s
Ġappropriate ly
Ġcla im
ĠTRAN SMISSION
/ ~
G REEN
s par
lf ill
ul arity
Ġv ms
Ġy min
ĠQgs VectorLayer
redu ction
) ].
L at
L ab
W P
Ġ mpl
Ġt rap
Ġin ferred
ĠC ap
Un recognized
ĠZ one
214 7483
ĠModi fy
ESTED MESSAGE
s po
Ġf rontend
() ``,
supp lied
Ġ#---------------------------------------------------------------- ------
o mp
Ġ0 5
################################ ################
000 7
06 1
) \\
F ri
Z i
ĠB reak
ĠFor ward
Ġmer ging
ĠRequest Context
M ut
Ġ2 54
mit ter
ĠIN SERT
Ġspecific ally
CHO ICE
ĠFrame work
S un
ĠCO DE
Ġ'\\ '
ĠACK NOWLEDGE
$ ")
/ -
B tn
ĠH YPHEN
RE P
Stream ing
? ,
x fail
} ):
Ġc name
Ġ1 15
ĠW KT
men ian
tifi c
exec uted
dition ally
75 3
Or dered
speci ally
Ġalign ed
H older
Ġre prec
tool chain
Application Exception
ĠCourse Key
mpi rical
çº ¦
Ġhel ps
ĠM ul
READ Y
Normal ize
Ġconsist ing
module name
Ġ) ),
CT RL
78 3
track ed
Ġph ases
* (\
1 000000
B order
LO OK
US R
Bo b
Comp utes
Ver ification
Pbb Message
Ġang les
æĬķ èµĦ
m ne
q web
s as
Ġp ep
Ġdef s
ĠA nother
cor ner
()) ),
so uth
Ġ'. ',
Ġexport s
moo thing
thresh olds
de ci
ĠF ast
ĠHe bei
pur pose
SN AP
ObjectFactory Checker
thed ocs
' />
T a
Ġt ro
Ġde dent
ip addr
Ġat ten
Man aged
Ġpad y
Ġprece ding
Leg acy
)) ',
ĠB ind
patch ed
web app
Ġri sk
VERT ICAL
E mployee
G M
L ife
P ing
æ ±
Ġ' ['
lo se
id ge
ĠP ush
main loop
')) ),
NotFound Exception
HOST NAME
follow ers
Ġred undant
ĠMEDI UM
Ġ< ==>
ok es
06 3
conf licts
gr and
Second ary
V lan
ĠB ACK
ĠDe fini
Ġimp lies
ä¸ Ĭ
Attach ment
0 54
T un
ro te
es ome
Ġen caps
sub str
lob ber
OL ON
Ġwhite list
ĠLim it
W arn
g rouped
se nsors
li ant
extra ctor
public ation
BO OT
Ċĉĉĉĉĉĉ ĉĉ
Ġupper case
presen ter
or ange
co o
he artbeat
write row
tra it
Ca pacity
Ġtool chain
C ATEGORY
i python
Ã ±
ĠP VOID
Ġver ifies
send all
skip if
RES ER
IDENT IFIER
Ġstrict ly
Ġconven ient
Ġser ving
Geom Type
a way
Ġ" {%
__ ]
Ġde composition
sc ar
ĠR outer
Ġopen edx
)] ]),
Ġexec file
Al locate
Inter pol
Component s
Ob server
V LAN
Ġs mb
Is Equal
85 2
respon d
Ġlisten ing
Ġrespon d
Ã§ Ã£o
ĠVUL GAR
/ +
un escape
si ght
00 12
local ized
æķ° æį®
T i
lo rer
ul li
ĠRe verse
Ġback off
wo od
æĸ °
cach ing
0 30
85 1
Ġenable s
Ġbl k
Ġincorrect ly
C ent
M ag
n ice
å ĵ
Ġc elery
type id
Ġ[] ;
Ġdoc umented
Ġpos ted
fl v
Ġdiff ers
ĠST ROKE
ĠRen ame
Ġthresh olds
+ ",
U MP
j c
Ġn ex
Ġt n
Ġcon firmed
Ġr dtype
read String
col lected
AS C
Ġht t
Ġ'% .
ĠPro b
logger s
Ġappro ximation
ĠPI PE
" [
3 64
ur andom
flow s
Ġfree ze
Help Formatter
N K
N y
ĠD ST
ĠN umenta
let t
Thread s
R SS
Ex amples
tra j
Ġsize Policy
GG ING
Open SSL
Include s
pagin ation
________________ ________________
g cd
Ġ1 40
ho ver
ĠW erkzeug
home assistant
IZ ATION
Ġiniti ally
H IST
Ġre cover
() })
per l
sub domain
Tx op
Nested Message
Ġcas cade
quiva lence
Ġt alk
Ġb asket
ĠG EN
Ġat tention
Ġgra ding
bit coin
ĠWeb IDL
conver ted
ĠAllow s
Ġexperiment al
u ched
ar win
Ġn w
Ġst roke
ĠH ard
mar ty
COMP R
ĠQU ESTION
Ġes sen
udi ence
F MT
a ci
g ce
Ġw ater
Ġas sertions
sym bolic
sd l
Ġsim ilarity
NOT IFIC
ĠScen ario
T REE
] ;\
æ ı
([ [-
Get Property
down loader
ĠMAC RON
DJ ANGO
ĠCOM MA
J ust
st udy
Ġon error
Copy From
Relative Path
D IG
b ow
} [
open shift
ĠTrain ing
M Hz
S orted
m ts
Ø ©
') ]),
ĠLo ader
Wifi InformationElement
Ġagent s
re hen
ĠS cale
Ġ(' #
log filepath
44 44
Ġsystem Id
Ġquot as
swig register
Ġlearn er
Ġmagn itude
satis fied
T w
in struction
ĠC atalog
res ample
Ġcast ing
FEAT URE
Ġgui de
Bot tom
Ep isode
Ġconj unction
Y ield
g row
se ns
co efs
ĠT oo
ile s
ĠM c
ĠPro vide
ABCDEF G
M USG
l xml
at least
Ġ: -
Ġ{} \
represent ation
D l
U tilities
Ġ #####
Ġi ll
int ools
AM D
raw l
ga ussian
ĠPe ter
ĠForti OS
åĩ º
LineTo LogFile
ĠENS MUSG
S PECI
å ½
ĊĊ ĊĠĠĠĠĠĠĠĠĠĠĠ
Ġde serialize
Ġitem list
ĠDe pendency
AUTH ENTIC
åı ĸ
Ġmq tt
h v
ti zed
Ġf ld
Ġp unctuation
si mulation
Ġas semble
for mers
ĠMe asure
sample r
~~~~~~~~ ~~~~
> '.
S ucce
ol ations
Ġh al
ĠI ts
fe red
Ġoption flags
source forge
web hook
ĠDo uble
radi ans
n A
Re moves
OT H
TT G
Number s
]* ',
Ġeigen values
] =='
Ï Ģ
Ġm ol
() ["
ra dd
pro blems
edge list
si o
Ġv di
up t
In ner
Ġwe ird
Ġper mutation
ep g
ĠEX IST
Ġ'* ':
ĠStream Reader
od ata
tool tip
PRE D
ĠBU ILD
Ġidentifi es
fi fo
Equal ity
ener ate
Ġ] ))
f red
h orted
é Ľ
de que
Ġan no
ĠS ch
ĠA lex
Ġex ited
Ġsub module
mail ing
tera ctions
named number
UST ER
Compiler Tool
âĶĢ âĶĢ
âĢĶ âĢĶ
" \\
c amel
n ik
} (
Ð ¼
in dividual
Ġcon current
Ġdi vide
data structures
Ġinter pol
Ġqu ants
DS A
N or
y er
__ ['
Ġtime utils
mer cial
Sign ed
Ġst s
ac ct
Ġal one
EX E
Status Code
Range s
Prefix Checker
Mask Checker
circ ular
LIN ES
Ori ent
ls h
we ather
En viron
exp orted
tera tions
REG ION
Initial ized
istic Regression
* [
H MAC
ti an
Ġf ed
COL LECT
ĠMay be
Ġf map
den y
L m
s le
in ate
Ġs vm
""" .
comp act
tra c
inst allation
COUN TER
Ġs aves
Ġ1 35
ĠS trict
Qu ad
Ġ"< %
Mis match
Member s
Ġ" //
lin ed
Type Name
sub sets
Ġcontent store
tran sitions
K R
b v
', [[
cl c
]) /
PL ACE
JSON Encoder
Ġmodification s
Ġquestion s
ĠĠĠĠĠĠĠĠĠĠĠĠĠĠĠĠĠĠĠĠĠĠĠĠĠĠĠĠĠĠĠĠĠĠĠĠĠĠĠĠĠĠĠĠĠĠĠĠĠĠĠĠĠĠĠĠĠĠĠĠĠĠĠĠĠĠĠĠĠĠĠĠĠĠĠĠĠĠĠĠĠĠĠĠĠĠĠĠĠĠĠĠĠĠĠĠĠĠĠĠĠĠĠĠĠĠĠĠĠĠĠĠĠĠĠĠĠĠĠĠĠĠĠĠĠĠĠĠ ĠĠĠĠĠĠĠĠĠĠĠĠĠĠĠĠĠĠĠĠĠĠĠĠĠĠĠĠĠĠĠĠĠĠĠĠĠĠĠĠĠĠĠĠĠĠĠĠĠĠĠĠĠĠĠĠĠĠĠĠĠĠĠĠĠĠĠĠĠĠĠĠĠĠĠĠĠĠĠĠĠĠĠĠĠĠĠĠĠĠĠĠĠĠĠĠĠĠĠĠĠĠĠĠĠĠĠĠĠĠĠĠĠĠĠĠĠĠĠĠĠĠĠĠĠĠĠĠ
Ġaccompany ing
D sr
ec s
Ġ. *
OP CODE
fs m
sim ilar
Ġsubstit ute
Ġdead line
Ġsatis fy
- >"
H N
T abs
b ands
f info
Ġth roughout
)) '
Ġun handled
Ġk ube
Ġle ader
Ġindex er
Min or
ĠInte gral
L l
q d
r ds
ĠRe ader
Ġ'% %
Ġoccur rence
anc ers
Y AML
q i
Ġw rt
up graded
Con ditions
sk ill
Ġfe el
47 0
Ġsql types
æľ Ģ
BL ACK
GO Protos
ĠAttemp t
æĬķèµĦ èĢħ
: '):
w char
Ġb ond
mo z
admin s
Ġbad ge
Ġc uda
(" *
ĠF TP
table t
man tic
Ġunicode data
VARI ABLE
u ated
re cover
Ġs x
Ġex pensive
um able
um bs
Ġr g
ĠN ested
read MessageEnd
Bu ffered
fd open
NO S
Ġdifferent ly
Wimax Phy
a mpling
in stead
Ġn ix
co g
00 18
inter sect
ĠSo uth
(* [
IO Loop
stack overflow
Ġweb notes
Ġest imators
f at
é ½Ĵ
Ġf ly
ĠT ab
Ġex ponential
rag ana
STAT ES
Com bine
+' /
ilo ver
9 01
> ".
Ġs pl
ĠRe moves
Base Test
round s
Ġconver ters
Ġprofile r
$ $
n k
Ġcon tour
ĠP ur
sub scribed
è¯ ¢
Ġblack list
C MP
R ts
Ġ )))
ti sh
Ġre sid
tp u
write String
Ġle aving
Ġac curate
Ġcount ing
Ġown ed
Ġreceiv es
o tion
s chool
v env
ry thon
St ar
IM ET
78 2
Class Name
vs witch
Ġskb addr
r data
de bian
ĠA xis
assert Select
ĠB er
Di Graph
Count s
Tra ding
Ip Address
ĠContrib utors
Ve locity
C pu
L J
di rectives
dd b
assertNot Contains
Hard ware
> /<
u ing
set Current
Er lang
mb H
iv ariate
Ġsp ot
INTER MEDIATE
ĠTo ols
MESS AGES
ĠRel ation
material s
ipt ables
Ġsatis fied
x FC
se ll
(" \\
Ġor phan
sign ing
List View
ĠID LE
ĠAc tive
Ġarticle s
è¡ ¨
ĠFIL TER
- "
P ci
b isect
f path
den om
Ġpre sen
Ġdo Actions
File Field
struct s
scope d
Ġreason able
big query
Position Allocator
ĠConver ting
R TL
g ro
)) ).
** \
ne y
RO SS
host vars
Ġ/ >')
send to
Ġtrack ed
screen shot
DA O
Ġ------------------------------------------------ --
Attemp t
I AN
fi df
Ġch i
ĠH AND
write lines
EST ORE
Qual ified
DBG KD
3 80
D EN
s sid
č ĊĠĠĠĠĠĠĠĠĠĠĠĠĠ
ĠI dentifier
sp her
Se gments
Err no
ura dio
`` .\
Ġmax val
auto matic
Ġ([ ],
+\ .\
? =
A nother
B AND
Q S
n br
ON S
Ġsub domain
ach ing
meta var
SM B
ä¿ ¡
Categ orical
> }
R ates
m C
Ġg h
ow ns
ĠE ns
64 32
Ġcomp act
[: ],
Ġchange set
DB C
61 32
SECON DS
A O
J OIN
r vs
s mb
', ',
Ġl as
Ġat tack
55 1
Ġwhen ce
ven ience
Cre dential
Ġalph abe
M z
l k
o virt
di mage
ĠM AGIC
Se p
Ġnon zero
EL D
Ġlock s
Tri angular
posix path
ham let
Separ ator
âķ Ĳ
p name
Ġre vert
Ġis olated
Ġv max
ĠN T
Ġpre process
Ġmethod Name
Ġpy tree
PAR SE
Ġden ied
cycle s
PIX EL
9 87
R IES
is space
Ġun necessary
ĠNo tification
Plan e
e ty
ĠM akes
Ġcomp ose
msg str
BO ARD
Ġdescri bes
Dimen sions
CLAM ATION
D NA
S quare
s av
il legal
Ġcon secutive
Ġvar args
Ġselect able
. {
F IC
Ġse quential
Ġx id
ĠOR M
Ac cum
part ners
Ġge vent
tran sient
Ġexclude s
Ġunpack ed
Ġ( ):
LE U
rt c
Mark up
Sig ma
adj usted
Ġbackslash es
) =
str Repr
Ġro bust
Par ses
DR IVER
Ġexpi ry
Readable Transport
4 33
B lack
N z
Re moved
=' ""
Ġpy glet
Key frame
rect s
Ġback ref
IO Base
P seudo
S paces
p next
Ġa head
Ġth er
00 15
Re moving
Ġsub scribe
sib ilities
restri ction
W ake
d ff
type of
ĠD H
ĠG mbH
ĠSt ub
Ġsome where
ĠModuleStore Enum
P ow
T s
ç İ
res cue
change log
fol ds
cher rypy
Leg end
* =\
Ġ ########################################################################
def inite
ĠR ED
sen ger
Ġlogger s
COMM IT
S ORT
U int
re visions
ĠE nt
Ġ} ))
log istic
Ġpre ferences
Ġdo g
Ġ[] }
mk time
reet ing
contin uous
abcdefghijklmnop qrstuvwxyz
ç Ļ
an ies
get file
con da
context lib
Ġtra cing
Ġ8 00
ĠGL float
pick ler
',[[ ('
# ',
N W
f riend
ch rom
urn ament
ex ponent
==== ==
Ġme raki
`` \
oo keeper
dev a
mi um
ĠTensor Product
MAT RIX
b ol
} `
Ġa mt
Ġle s
ãĥ ³
Initial izes
Exist ing
ĠCall Tree
review er
ĠDeveloper s
Ġrela xed
-+-+-+-+ -+-+-+-+
Let ter
: ^
C ut
u gettext
Ġ(' .
field sets
Ġrequest ing
Ġover view
now ledge
Ġest imates
Ġcommunic ation
n oc
t weet
en tific
Ġ1 14
he v
par ti
om ated
10 80
Ġcomp licated
Data Type
An chor
HTTP RequestHandler
Ġderi ve
D HE
o od
de m
Ġde queue
ome ga
El lip
tode nse
S ha
Ġa ffi
Ġb dm
Ġm w
Ġd ark
Field Set
ili o
ĠYou Tube
State Machine
BL UE
Ġaccum ulator
3 19
E U
S sid
ĠD one
In herit
Ġ10 7
User Profile
RESULT S
ĠHen an
Ġf lavors
Ġb iases
Ġb race
assert Table
mat vec
ca Txop
gen re
Per m
Handle s
Language Codes
Bound s
EXIST S
I Q
M aker
t utorial
w info
ĠV CS
ak o
rt ol
ĠDE F
Ġ---------------------------------------------------------------- ----
Ġrecent ly
har ness
A ut
B g
k le
Ġin finity
Sh adow
EL LOW
Ġtotal s
au di
ĠSER VER
peak s
ĠSec ret
copi ed
ap k
ĠP ress
Ġnew node
En queue
Mac Low
re cs
Ġ* .
AC AG
ati le
disc rete
Ġparen theses
cele ry
Ġestablish ed
d pi
w g
~~ ~
coun tries
Ġstop ping
cn f
Au dit
POLY GON
= ()):
N at
l x
č ĊĠĠĠĠĠĠĠĠĠĠĠĠĠĠĠĠĠĠĠĠĠĠĠĠĠĠĠĠĠĠĠ
in come
Ġh eld
Ġr sa
AR P
Key words
UP DAT
Ad vanced
Read s
ĠLa unch
ĠFa ctory
ĠOrdered Set
Ġ' }'
per sist
ĠM SG
pon der
AL OG
Ġlog o
Lib raries
tv db
H h
S UN
g old
| [^
len e
LO Y
ĠIN D
Ġcomm unity
ink er
author ity
Sub class
Server s
mount point
bus iness
IMP LE
4 000
U s
Z F
t cl
Ð ¿
Ġi map
Ġs licing
un handled
Ġsub graph
tra verse
EG ATIVE
gp us
@@ @@
Ġdeal ing
ç Ĳ
li sion
Pro j
ECT ION
sol ink
spe ech
Ġquick ly
# "
4 13
Ġ ĊĠĠĠĠĠĠĠĠĠ
Ġ" ?
to hU
Ġdi rected
Ġperf ect
Ġstra ight
z d
Ġo vs
Ġb on
ĠM aps
Ġavoid s
tia Lite
Cross Ref
Ġl abeled
Ġwrite LineToLogFile
Le ave
ASS IGN
ä» ¥
Ġbib doc
. -
de leg
er ver
00 80
ĠRe movedInDjango
Ġ}} ',
Mod al
' ."""
5 16
A live
de construct
Ġf reed
ĠL ESS
Ġ`` <
Ġdist s
multi array
Oper ating
Ġsupp lier
Ġhy po
fi ve
Ġb ogus
ĠS mall
Ġex pose
Pro jection
HE AP
BO DY
ãĢ ģ
ĠPARAMET ERS
o li
se gs
Ġre direction
ri a
ID LE
Ġinter p
Sp an
oooo oooo
T MPL
Ġr st
Ġcol l
exec uting
IND IC
ĠPermission Denied
i command
m ys
de ath
Ġn diter
qu iring
Ġu b
fo reg
ance stors
sh rink
Ġ(' [
Con d
sub mitted
Ġrepo sitories
times lices
Ġser ves
TOP IC
Inet SocketAddress
> .*
R ATION
Ġfrom str
CT L
Ġ10 6
Ġsum maries
mogene ous
p key
Ġf ip
it z
ĠS hared
De velopment
ĠFile System
čĊĉ ĠĠĠ
199 8
jar ati
= ")
W ords
in cremental
Ġu gly
base logindent
]+ )?
ĠQgsProcessing Parameter
G r
s li
ç µ
Ġi val
ĠX CObject
Ġexp rs
ĠY ield
67 1
ĠRun s
sn at
HOST S
Ġbrowser s
PAL ET
+ ?
v dom
Ġex istence
12 00
tra ined
ĠJzKet Coupled
floating ip
Track ing
ĠRep orter
ti ght
Ġn db
Ġde mon
(" </
=' --
Ġ3 33
"] ',
Di ve
ĠTest Result
Call ing
multi cast
ĠNo Such
Ġbook mark
Ġsched uling
foreg round
H KEY
ver gence
ĠB roken
comp uter
Ġapp endix
To Point
78 1
skip Test
Read CrossRef
'^ [
Ġretrie ving
ĠBus iness
4 22
Ġp gettext
um s
RE V
He ading
Ġjson ify
ĠSe lf
Ġmon itored
au ss
ĠAl gorithm
WR AP
ater n
developer s
N j
S CE
l ng
r file
in ated
per mutation
ĠH ello
Ġsh allow
84 99
ĠNode s
FIX ED
Include Directories
Exists Error
ĠAv ailable
name list
Ġv g
ĠF our
tri vial
Ġ(' (
Ġarg d
Output File
000000 01
]* )
remain der
REPE AT
P CA
T im
Ġ lic
ĠĠ ĊĠĠĠ
00 16
Ġco res
Ġfile size
File Descriptor
ĠOPT IONS
9 22
P ag
ub ar
ĠL atin
Ġ4 43
show s
auto mation
Ġtermin ation
ãĥ Ī
ĠOver flowError
Modi fier
ĠExp licit
ĠHandle s
favor ite
ĠEXIST S
y axis
(' *',
data frame
In teractive
uc s
Ġpost builds
ĠRun Shell
Ġtx n
ĠTe le
We ights
ĠWor ker
Ġmoment um
Ġbytest ring
ĠA re
AT TA
De fines
ĠCall ing
Ġplug intools
Q Widget
Ġp resubmit
ĠS napshot
add Child
po site
fig size
the mes
85 3
An onymous
Ġcen tered
çº ª
P CI
S an
b q
g st
g ar
In tended
Ġkey pair
sub query
Ġhttp d
Unit Types
ĠDES C
cum sum
(' =')
la ined
ex og
ber os
Par titions
number Of
ĠName s
SN ESTEDMESSAGE
DEC IMAL
LOT SNESTEDMESSAGE
m se
ĠB al
Connection Pool
([[ [
integer s
Cho ose
Aggreg ator
ĠCre dentials
Paged Pool
Pare to
A cl
p ch
Ġa id
Ġ' **
Ġc ygwin
ĠD uplicate
Ġpy parsing
Ġpy rax
filter warnings
48 3
pk l
GL float
repo sitories
ĠWindows Error
033 8
ĠWith out
Escape d
ĠLim ited
B acteria
V o
re gs
ti e
Ġre create
Ġ(' {%
read StructEnd
read StructBegin
work center
node acl
"] }},
... ",
Ġlate ncy
ob server
CHAR SET
readField End
readField Begin
c rawler
x FFFF
æ ¬
ĠA udience
Ġdi ffic
Ġpro tection
ĠThe me
option flags
post ing
mal loc
cd n
loop back
SO UR
atten dance
REG ISTER
Regexp Matches
bre vi
ĠIter ate
M icro
h or
r k
', [
si e
ĠC ateg
py dev
ĠEx periment
Ġunder scores
orth and
Indic ator
P rep
Ġe specially
id f
ĠC ATEGORY
Ġ2 05
ĠH PDF
row count
ĠIN FO
Ġtag name
Ġign ores
Trans mission
alf ormed
Ġty po
PARAMET ERS
ĠTri gger
j n
() ",
write StructEnd
write StructBegin
extra ction
Button s
Pol l
SUP PRESS
lli gent
Ù ¾
ate x
ic a
AR C
Set Input
sys config
96 1
slash es
writeField Stop
relationship s
c db
ut coffset
00 14
Par agraph
Compo site
N AN
O AUTH
b link
u time
read write
Ġpre releases
Ġ5 03
Ġnum s
mon itors
45 2
(': ')[
APP LICATION
Spa cing
C ReadableTransport
re jected
Con tinue
lock ing
we bob
Ġ10 9
has is
View Middleware
Ag reement
Ġbe have
Ġra re
lan e
my date
dr v
MAN IFEST
Ġexce ed
k config
æ ĵ
Ġ Ñģ
Ġ""" ))
Ġ1 13
Ġpro v
Ġover head
Ġtemp est
allow s
SC AN
ä» ĵ
alen coder
5 04
C IT
e lev
w ed
x link
Ġi ri
un to
un processed
ĠE mployee
ĠR T
obj ective
Ġfunc name
vn c
ĠUnicode EncodeError
edu ction
Chooser Block
. [
5 14
D UP
J KL
Ġf uzzy
Ġm im
(' {%
Ġ* )
Ġcomp lain
ĠPy Object
Py Qt
ĠQual ity
7 22
x X
py lib
return ing
Ġad jacent
ĠPro duction
Qu oted
cision Tree
Sec ure
ĠModule Manager
Ġforward ing
Part ner
Ed ges
Ġxy z
ç»ı çºª
R NN
S tri
Ġh box
ho sted
ag reement
Ġsub tract
Ġsh ards
Set Attribute
Ġad joint
filter ing
io http
45 3
TE MPL
Ġaccording ly
fan art
Ġre raise
Ġs lope
Ġan ti
il ab
ĠS EC
Ġas array
Qu it
ĠØ ª
SPE C
navi gation
B rowse
I FF
S ENSOR
de mand
Ġs coring
Ġan imation
ver sioned
ile stones
ĠL i
ĠG REATER
Ġma lformed
PE M
fic ulty
Ġpk gs
ĠStream Writer
ĠOP EN
ARG UMENT
Ġari thmetic
LAY ER
( &
re views
Ġi pt
at tack
Ġfor warded
tag name
Ġcp us
ĠStart ing
rab ic
V CL
W GS
e quivalent
u ity
ç Ń
un ordered
fi able
SIGN ED
- {
] **
Ġf ive
Pro ps
Ġcomp uter
Ġcheck box
ĠCon ditional
FF D
sm ar
Ġcaller s
mav proxy
Ġtrim med
Ġguarante e
--+--+ --+--+
re quester
Ġre factor
Ġre covery
as in
Ġs uites
ra id
',' #
Auto configured
ĠAss oci
te ro
Ġf b
ri p
') ['
Ġ[ ["
Ġlo ts
Ġun modified
02 00
čĊ čĊĠĠĠĠĠĠĠĠĠĠĠĠĠĠĠ
". '
ati m
Ð° ÑĤ
ĠOGR Geometry
ĠCL ASS
Ġglyph s
4 50
5 20
p format
x form
li kely
ĠE quivalent
List Item
ĠSt ates
short cut
ĠEX CLAMATION
ä¸ ĭ
Ġexit ing
circ umflex
SECON D
N inja
Ġs ibling
arch s
('< ')
Ġkind s
peri ence
GOO GLE
ĠRou te
. ]],
H our
de haan
Ġs ynchronous
Ġw kb
00 13
ĠC ALL
arn a
char ref
FF F
68 2
Ġsen tences
gp fs
Ġcalcul ations
ĠRule s
Fire wall
Predi ction
s wa
u ix
y t
in clusion
Ġth rows
Ġst anza
cl ash
=' $
format ters
face t
Ġ.. /
Local LB
Sca ler
C xx
D rive
S olution
i h
l ves
Ġ Ú©
00 30
Ġr dd
pre fer
44 1
Text TestRunner
Project s
Assign Streams
ĠResult s
ĠScal ar
A ware
S nr
n as
Ġ0 6
Ġex clusions
Ġco vered
=" ([^"]
ĠE mbed
cf b
ob servation
ĠData Source
ĠOp code
æĸ ¹
( +
C f
D iv
_ {}
Ġ# %
it o
ĠP hy
]) ])
Ġcol lapse
Ġ{} }
Ġnetwork x
ĠTE MP
d as
op h
ĠS chedule
De termin
ll dp
To File
MO V
termin als
Ġbar code
ĠSpatial Reference
Ġsit uations
ĠMember ship
"? >
ĠT P
Ġpro bs
ĠPy PI
Ġrep lay
Ġnick name
SCAL E
5 25
F avor
s rt
Ġv ote
44 2
ĠImport s
SH UT
PROCESS OR
C ls
ĠA M
comp s
RE A
own ed
ĠIN F
Ġgraph ics
Ġupload ing
ĠIncremental Encoder
O s
Ġ' ...
Ġi si
ĠC ERN
AT C
32 32
of c
Ġdel attr
rag ged
ĠSIGN AL
ĠStr ings
reame r
R oll
g as
al gorithms
li sm
ĠA ctions
ĠL TD
Ġun register
om b
'} ],
valid ated
Ġapp ending
ĠOpen GL
enter prise
sheet s
eager ly
R DD
V CS
Ġe lastic
DE FL
Ġprop ortion
Ġmanual s
hance d
ĠIncremental Decoder
H ou
Q Color
Y u
Ġs izer
ing ress
Pro duce
UL ES
Ġover lay
Ġpick ling
Ġgen der
under line
# ':
4 25
S DO
t qm
an sions
De tector
ĠWh itespace
Cloud Stack
Ġsheet s
ç»ıçºª åħ¬åı¸
7 89
B P
an cial
Ġt ap
ĠB oto
55 3
ĠCon sider
FIFO Queue
4 15
5 37
C e
j an
p fc
trans parent
ale x
show n
{} \
ĠSimple TestCase
ĠImple mentation
ĠRepo sitory
âķĲ âķĲ
C ORE
O pts
S ince
') \
set Font
ĠC la
Ġr ates
Ġvalue Of
:// /
']) ]
parse DOM
FR AG
Ġast roid
ĠWri ter
P ony
U integer
r ms
re voke
il de
lin der
che m
Ċĉĉĉ ĠĠĠ
send ing
Ġiter values
ane se
Ġgu ard
PN G
iel ded
4 18
L java
S uites
k args
s mal
Î ¼
ck pt
pro cs
Ġro uters
Ġdb g
67 97
Mo unt
ĠtearDown Class
mapper s
Ġfore ground
Ġprac tice
B et
r just
th in
ĠA E
Ġcomm as
fc ntl
Input Set
appen dices
Lim its
Im mediate
H w
c group
bit rate
Ġinfo s
As sistant
'" ',
Ġrestri ctions
di cated
Ġst ages
lin d
man ence
Ġreg isters
Ġopen id
69 0
Ġmod s
unpack ed
Ġstat uses
car rier
P alette
a lerts
u math
y d
at ol
Ġ" `
Ġ[' ']
Ġ`` _
the ma
46 2
EXT PROC
bound ing
Cap ability
MIS S
Ġscra ped
Ġ################################ ########################
CharTo OrderMap
) [:,
e gress
p nt
æ Ľ
ĠH DF
tain ing
ĠAn onymous
?:// (?:
Ġasc ending
Ġgn uradio
E very
e h
f uzzy
r val
it ness
Co un
Get OfdmRate
uk hi
('. '))
Ġ'" ':
ĠMark down
urm ukhi
6 01
T witter
as tern
Ġin vite
() +
get root
ĠO f
Ġl m
PRO GRESS
96 3
ãģ Ļ
'^ (?
Broker ID
F rag
P V
b ec
i en
get sock
Ġ1 22
ĠS UM
Re size
oc al
emp loyees
ĠComp ile
Ġswitch es
ĉĉĉĉ ĉĉĉĉ
scrimin ator
A m
s lack
z ap
ĠC amp
ĠG uess
TH IS
Ġsubclass ing
ĠNorm ally
K nown
in complete
ad verti
assert Form
Get All
Ġ10 8
DI STR
ĠHTML Parser
Make Autoconfigured
YP ES
ĠFire fox
flu ence
æİ ¥
C ircle
h ol
j y
n rows
or ge
(' ../
Con tin
User Factory
75 1
hash able
mi os
]+ )/
ĠSh ell
F V
_ ]
Ã º
lf ield
ch en
Ġj unk
Ġhelp ful
her me
Ġanaly zer
ĠCF Name
mav link
Ġsucce eds
ĠUs ually
B l
S q
l ating
re cording
co ve
Ġw w
Ġ1 63
Ġl int
]+ \
vv v
lio graphic
0 57
M ost
ç ´
st ro
Ġ' |'
ot le
set timeout
Ġen velope
Ġout str
Ġal go
Ġac cident
Ġdisc rete
ĠApp lications
Parameter Value
Ġmultip lication
ĠSV N
Deli very
+ _,
ad f
lin ewidth
Ġescape s
dl g
ĠRET URN
PAY LOAD
W XYZ
Ġ( =
(( ((
exp ansion
Ġ[" <
5 02
C ast
Z ERO
Ġe vi
ult aneous
pro duces
Ġr q
Ġarg list
FA ST
Ġmodify ing
ĠUpdate s
ĠImple ments
Uploaded File
P al
r in
po tential
ac cessible
Ġout dir
Ġro unded
En tities
Mac ro
Method Type
single ton
Foo Test
Abs olute
C UT
W elcome
Ġ+ ----------------
ĠC ost
ĠC Script
ĠL ive
tri als
ak a
Ġdoc name
05 88
external s
We ibull
Has Next
Called ProcessError
( {}
> [\
Q RST
V EX
W IFI
g dk
es cap
ĠC enter
Ġ_ :
Ġar t
Ġ{} :
List Filter
Fa ct
inte gral
Ġnl tk
c il
e i
f ps
Ġ' ]
Ġre con
di rector
(' %(
Ġg d
ff ee
ĠD ot
Ġy um
Ġun recognized
ĠN L
Ġmin imize
67 3
hash lib
45 1
phy sics
Ġdelay ed
" (?
Ġ( "",
ven ue
Device Node
New s
chno logy
Ġde bit
Ġde compress
ĠG ot
Vi sibility
.* \.
reed y
System Exit
Ġfix er
ĠUN KNOWN
66666666 6666
0 50
T oggle
é ģ
ĠF INAL
Ġr len
ĠD an
Ex ceeded
Ġtra verse
Ġselect s
cos x
. $(
B US
D WORD
S olver
Ġw t
Ġan on
ag en
und ay
ds a
Ġsh ut
RO C
locale s
Ġtrun k
ĠSchema Migration
F our
R ad
Ġ= ==
ch root
Get Type
HE L
Ġaccount ing
pick ling
Ġdecor ate
Ġ---------------------------------------------------------------- ----------
BR ANCH
ĠAli as
åĲĪ çº¦
atel lite
+ --------------------------------
4 10
> '])
J u
X Block
Ġ= ?
Ġfor bidden
Ġh ierarchical
Ġcon catenate
ĠIn line
AS SERT
post fix
+" /
/ )
M ARY
Ø Ń
Ġcon versions
ĠF ill
og g
Ġsub directories
VAR CHAR
Ġord inary
Ġsur f
ĠObject DoesNotExist
W a
\ (
g alaxy
Ġ ĊĊĠĠĠĠĠĠĠ
Ġme ters
ĠR ING
by name
Value Dict
Ġweb app
inline Callbacks
æķ ¸
uFF FD
C b
K Q
T ar
W B
min der
()) ]
Schema Migration
Inte grityError
in secure
th ai
Ġre used
11 01
Ġcreate Fields
([' -
Ġsuc cesses
éĹ ´
ORIG IN
ĠS can
ĠC ell
py qt
Ġ) ?
ĠH ook
STO CK
K O
Ġ' ]'
Ġin validate
ĠD N
ag ged
Ġcl ashes
Ġauto commit
Ġsrc set
Ġlocale s
Ġcut test
lf orm
ĊĠĠĠĠĠĠĠĠĠĠĠĠĠĠĠĠ ĊĠĠĠĠĠĠĠĠĠĠĠ
() (
ed X
up time
per sistence
tribu ted
ft race
Ġtext s
pr inters
Ġpair wise
> -
R ENCY
c j
d an
f df
t tk
un iversal
Ġe a
Ġh am
Ġas sembly
ĠF lags
ent s
ca ught
ĠException s
ĠCh art
Mo tion
Register Gradient
ĠTE MPLATE
+ ".
l us
Ġ( )),
ĠX ml
pop item
Ġge ometries
big int
Display Name
Ġsol utions
. """)
0 74
ç Ĥº
re ceiv
de activate
ro ck
(' ..
get s
ĠM ULT
ĠB ot
Ġwe bsocket
'. *
parent Node
imple ments
ĠK ernel
Ġsign er
ĠCO UNT
separ ate
ĠMeta Data
Distribution Analysis
rex Types
\ '\
e os
l ings
Ġ1 72
len der
debug ging
Ġsample d
.* ')
Av atar
ĠÐ ½
W V
p res
ge l
ĠO bj
ind x
48 1
76 3
sis ted
dentifi cation
Fe at
Ġsc anning
WE EK
DOWN LOAD
JO INT
S SE
S PL
g ator
at las
Ġ[ <
Ġ0 7
00 17
pa rer
am ond
uc lidean
_( ['
Ġord inal
Te le
Ġpi cture
çĲ Ĩ
B er
E H
E mpirical
as i
li est
Ġw ildcards
Ġ- (
ĠM ini
ĠV C
Ġexec utes
68 1
Ġ'< '
mid l
Ġpred s
AAAAAAAA AAAAAAAA
subscriber s
entr ance
ĠAbs olute
inker Tool
5 106
I UM
Ġs il
he jiang
Ġ15 00
ä¸ º
NOT IFY
ĠREC ORD
K P
g an
n ulls
se rif
Ġa z
In sensitive
ĠE cho
ĠE DIT
Pro ducing
Ġdis covered
Device EnergyModel
Ġob solete
Ġgs util
Ġplaceholder s
rich text
j v
ĠC T
Ġdata path
no ulli
Up dating
search er
Map s
Block s
ĠRa ised
irc ular
Ġ'* ',
parame terized
Success fully
Eval uate
l ru
| :
ar ms
get response
ab ili
test Method
OR ATION
ĠUn der
rt l
Ġiter ating
ĠRequire ment
D a
e fa
h ue
k p
00 19
data path
bo ss
ten ants
ĠDe fines
Col lect
mut ually
Ġagree ment
t S
t urtle
Ġf rac
ĠL ANG
Packet s
ĠGroup s
sf tp
S ty
x iv
di vision
ap ses
data Received
Ġ(' __
Ġpa inter
if c
SH OT
sample d
C ube
Ø ¨
ri den
ĠF F
Ġdi ve
py doc
script Data
MA STER
App le
čĊč ĊĠ
ĠZ hejiang
EXCEPT IONS
H istogram
å Ł
len s
any thing
ĠUn like
(?: [
Ġcolli sion
Dont Fragment
C w
Q o
l um
fi p
pa tient
Ġop posed
pair wise
SC REEN
ĠCOMM ENT
Ġswap ped
ĠVist A
J E
j abber
te en
Ġx l
202 9
Ġfix es
0002 00
DET AIL
Ġcaref ul
5 34
to ver
read thedocs
LE G
Start Time
ank s
Ġcla uses
ĠREQU IRED
PROPER TY
Ġs aniti
si gs
Ġsub directory
Not Exists
Handler s
Ġsa id
ins pection
lat able
WE IGHT
Ġquot ation
4 20
W ater
Ġre ferer
)) \
)) ],
Pro vide
User Name
ĠCheck ing
ĠPre fix
ãĤ ¹
TL M
Ġbeh aves
K W
Ġin ode
nt ype
get Control
us ually
ĠO ur
St ory
Ġsite map
Recur sive
Ġshor ten
istra tive
6 50
E CH
R ING
Ï Ĥ
con om
ve cs
:: ::
ĠG ame
pre t
Ġmo tion
Pack ages
ĠMe an
Ġtmp file
æľ º
ĠEnvironment Error
classi c
ĠGit Hub
ModuleStore Enum
ĠCookie Jar
PRI ORITY
X F
a utiful
s dist
"" .
ĠC FLAGS
Base Command
lex pos
indent ation
[^ "]
fm sec
ĠEd ge
: ':
S pider
Ġ xt
ĠQ MessageBox
OS X
LIB S
Ġprice list
silent ly
âĸĪ âĸĪ
: ":
p assive
Ġp ressed
Ġt l
Ġm ind
pa ypal
ci te
Ġpar tially
pass phrase
Ġplot ting
Big IntegerField
Ġcar ry
ĠSpa tiaLite
ĠRuntime Warning
R NA
p du
p unctuation
r ings
ar ctan
is in
ĠT IM
Ġ1 16
ĠD en
Ġen closing
oo b
DO CK
mock s
mer ce
cd c
ACT IONS
draw ing
äº º
Positive SmallIntegerField
Database Error
External Encoding
recipe s
p added
Ù Ĥ
ç ¨
ĠT ags
IN C
Ġreq s
CONT AIN
+_+_+_+_ +_+_+_+_
4 16
Ġp res
ph otos
File Error
File Dialog
Ġbo keh
Wh ile
compiled Header
B ib
N umpy
tion al
ri age
Ġv min
ec tively
Ġhash ing
ĠTrans lation
ĠAb out
Matching Type
ĠHA VE
ĠIM AGE
Baz Test
4 19
en ces
") (
Par ty
split ter
Ġwor th
ear Down
Link Local
ç ¬
Ġp ul
lin ter
time shift
oc ations
ind ptr
AR IES
46 3
ĠCh unk
202 8
APP END
Reverse Match
4 14
5 185
T Security
s us
ex empt
Ġfile no
CH AIN
Ġup loader
Pre ference
Ġob vious
ĠForm Set
Play able
H B
t lene
an no
bu sy
ĠP CA
sp ri
ww arning
Un signed
48 2
Ġ'$ '
quot ing
<! --
å¹ ³
M oney
] _
m ss
s lope
re pair
Ġ" ['
Ġin vert
(' ;
(' =',
Ġh ouse
Meta Data
Ġdetermin istic
week s
)** (
Static Text
Cen tral
ĠDimen sion
4 17
5 33
8 57
æ °
Ġp ng
ter day
ĠA ug
fail ing
Is MatchingType
Pack ed
GR APH
AUTH ORIZ
REG ISTR
Ġrec id
ĠPol l
ci ph
Ġsy ms
Ġdis count
dot s
public Id
BO OLEAN
hi ragana
M ultip
ĥ ½
Ġe mb
ol lar
ĠS core
int p
Ġelse where
Ġfrom list
rf ViewMiddleware
inte gr
m ilestone
q gis
u tem
ro bj
Ġs prites
Ġm orph
il a
ant age
Ġhe uristic
ĠJ ython
ĠCo ordin
SM Model
Additional IncludeDirectories
4 35
h ns
l or
re map
me mpool
Ġs ip
Ġin tention
Ġun ified
ĠUn expected
CL R
Open ERP
Work s
AI LED
Ġpropag ated
D GRAM
f ancy
se cts
Ġ" ").
pa x
=" .
ĠB AR
Ġper haps
ĠJ ian
Point ToPoint
Be havior
Ġhead s
Ġalph as
ung arian
Ġcalib ration
Ġ"> ":
. '])
0 36
0 56
C Q
e lf
g allery
Ġ( __
is Checked
Ġ== >
** -
ĠN B
ĠH ar
Ġsub strate
AP E
Ġ(" \
strip ped
Ġresource Path
ĠCh ain
ob solete
Ġpost ing
à¥ Ĥ
Guard Interval
+ %
4 11
5 39
N IST
t fc
u FB
de a
Ġth readed
bu mp
Get Node
sign er
yn core
65 3
Mac ros
ĠSH UFFLED
ĊĠĠĠĠĠĠĠĠĠĠĠĠĠĠĠĠĠĠĠĠĠĠĠĠĠĠĠĠĠĠĠĠĠĠĠĠĠĠĠĠĠĠĠĠĠĠĠĠĠĠĠĠĠĠĠĠĠĠĠĠĠĠĠĠ Ġ
ĊĠĠĠĠĠĠĠĠĠĠĠĠĠĠĠĠĠĠĠĠĠĠĠĠĠĠĠĠĠĠĠĠĠĠĠĠĠĠĠĠĠĠĠĠĠĠĠĠĠĠĠĠĠĠĠĠĠĠĠĠĠĠĠĠ ĠĠĠ
ĠRunqueue Event
QRST UV
ì ĭ
re z
Ġof ficial
Ġg b
=' /',
ĠN P
Ġend Tag
65 2
ĠBase Exception
ĠConnection Error
ĠAP IC
Hidden Input
ĠAUT O
æŁ¥ è¯¢
4 26
p uppet
mp tion
Ġb m
00 50
ms rest
Comp ressed
UB Q
timestamp s
Ġspace Characters
cost s
fast binary
Dep loyment
SIM D
sNC n
TEMPL ATES
R W
ä ¾
å ¥
(' "')
Ġ1 24
data gram
Ġcl ang
Ġ\ (
del tas
47 3
ĠAd ditionally
Ġturn s
utem any
I ENT
` ):
ad or
Ġ1 29
Ġ2 020
om orph
Con trols
Get Address
65 1
Ġlocal ized
Ġauto mation
Ġfl uid
ĠOpen ID
00000000 0
Ġà¤ ¸
x v
ec b
Ġsource code
Ġ'_ ',
ĠSO URCE
Ġpress ure
å¿ Ĺ
4 30
R ay
Ġ' :',
Ġre servation
un load
Ġm r
ss o
ĠP OL
12 12
create DataFrame
Ġreg ist
view port
ba f
ĠSY NTAX
Startup Banner
f resh
m V
n ment
Ġ" "))
ab d
Re start
Ġr yu
ĠG ive
ĠRe dis
build bot
Ġca using
optim ized
H F
I llegal
` \
k ed
Ġp th
Ġp ix
get Text
up ic
SE ED
Ġ%} '
paren theses
Suppress StartupBanner
P s
f utures
l h
w ee
Ġcon tro
OR ED
EN DED
Le arning
Ġloader s
åı ¯
wind ll
ĠPay ment
[^> ]+
A sk
L M
Q V
k Event
w ap
al ib
Ġi mm
Ġc ros
fi f
ĠC apt
Ġr hn
Con cat
graph ically
Ġ12 345
home page
ĠTrans late
G uess
H u
M IX
W ay
v archar
def ect
Ġd so
ĠC MD
Ġ< -
([ ]),
Comp ression
/> "
lat tice
proj ected
ĠSerial izer
g ps
h yp
u POP
set Geometry
Ġde activate
Ġg m
ĠP ORT
Ġse crets
In d
Pro totype
call ing
TT L
Ġimp act
76 2
Ġab i
MO USE
Ġref lection
Port s
Ġsever ity
J K
| "
de tected
Ġst ay
py x
Ġuse rid
Ġver ifier
Ġsub path
}) ',
ĠIO Loop
stit ute
NAM IC
ĠGeo QuerySet
0123456789 0123456789
D ays
F igure
Ġs hebang
un subscribe
() `.
ĠT run
Ġg object
ĠD ire
mode rator
ml lib
be h
ĠAN SI
ld flags
Ġdis connected
first name
ĠLay out
RoutingTable Entry
k d
Ġs aml
() *
ĠI mmutable
ĠP layer
Ġ3 20
Pre compiledHeader
Ġinv ol
invoice d
fol lower
Ġsha res
ilo meter
VIRT UAL
MER GE
J z
\ [
j enkins
l port
è ¼
ĠS un
Ġor ient
Ġra g
ĠU R
ĠV oid
Ġsh op
`` ``
EX PI
PE P
Pre pared
Per formance
OPT S
Ġgeo graphic
Na T
("" ).
Phone Number
= \'
> '),
N Net
c py
Ġ Ke
re staurant
Ġ2 20
pre releases
ĠChange d
ITEM E
elastic search
E IN
Ġd yn
ĠC Python
ĠEx change
ĠX Module
IO US
AND ROID
++ )
subject s
apic lient
P atterns
W heel
Ġs po
00 40
set Window
Ġval idity
bit bucket
sen tences
ĠAs set
COL ORS
deli mited
@@ @
ĠBack end
9 69
Ġ' (%
ro unded
lo bj
(** {
Host name
Script s
BUILD TYPE
DAY S
&& (
at on
ĠG YP
En cryption
ĠTest Gyp
68 3
On ce
SELECT OR
Ġplay ing
protection Level
ABCDEFG HI
/ --
i ser
Ġs uggested
li zation
ĠF AKE
pro posal
pre set
Get Data
IG GER
pop left
IO D
Ġiter keys
Ġ"- >"
Ġsubscription s
ĠMySQL db
moment um
E PS
å §
Ġre ferred
Ġ" $(
co ur
ĠP r
Ġr l
ĠO SI
sub tract
Key Value
Par allel
49 2
tx op
]] ])
multi processing
permission Group
ĠWR ITEME
W u
c ats
Re fs
PER IM
Com ma
ĠJo in
ĠH EL
Ġunder line
fore st
.* '
CS IDL
]* \
pix buf
ĠHO ST
ï¼ ļ
DEP END
SOUR CES
# %
4 12
P ix
S PECIAL
Ġre lies
et ools
ic ago
ext s
Ġpublic Id
ĠBe gin
Skip Test
ĠOGR GeomType
n able
Ġn y
[...]
